<unk>	0
<s>	0
</s>	0
th	-0
the	-1
re	-2
in	-3
an	-4
is	-5
at	-6
on	-7
er	-8
al	-9
es	-10
▁the	-11
or	-12
of	-13
en	-14
ar	-15
ti	-16
ed	-17
▁s	-18
to	-19
▁is	-20
ou	-21
as	-22
de	-23
and	-24
le	-25
ing	-26
me	-27
▁w	-28
▁c	-29
▁a	-30
if	-31
Th	-32
it	-33
ro	-34
ic	-35
▁of	-36
se	-37
▁f	-38
▁b	-39
▁p	-40
mo	-41
ce	-42
um	-43
ec	-44
tion	-45
ab	-46
▁n	-47
ly	-48
mp	-49
▁th	-50
▁d	-51
ion	-52
▁1	-53
lo	-54
▁(	-55
▁Th	-56
st	-57
ac	-58
▁in	-59
ere	-60
0.	-61
ter	-62
ig	-63
iff	-64
id	-65
ari	-66
▁A	-67
res	-68
del	-69
▁v	-70
ve	-71
tr	-72
▁to	-73
model	-74
ts	-75
qu	-76
▁e	-77
ation	-78
alu	-79
ow	-80
ul	-81
▁W	-82
▁2	-83
▁y	-84
hat	-85
un	-86
▁t	-87
▁and	-88
mean	-89
▁S	-90
▁The	-91
are	-92
ith	-93
ot	-94
we	-95
▁l	-96
il	-97
ol	-98
ate	-99
et	-100
▁h	-101
ant	-102
▁What	-103
us	-104
00	-105
igh	-106
ance	-107
▁Q	-108
ata	-109
om	-110
▁m	-111
▁g	-112
xp	-113
▁[	-114
ent	-115
that	-116
ofthe	-117
ke	-118
<-	-119
ra	-120
▁that	-121
for	-122
est	-123
ut	-124
TI	-125
all	-126
▁we	-127
1]	-128
valu	-129
12	-130
umb	-131
able	-132
use	-133
ay	-134
▁model	-135
vari	-136
▁0.	-137
ction	-138
umber	-139
iffiff	-140
ard	-141
▁[1]	-142
eren	-143
).	-144
pp	-145
out	-146
ver	-147
▁for	-148
▁vari	-149
ifferen	-150
ain	-151
ect	-152
cid	-153
▁3	-154
ity	-155
ad	-156
our	-157
ge	-158
tic	-159
ch	-160
ir	-161
thes	-162
▁re	-163
ight	-164
les	-165
▁x	-166
▁wh	-167
wo	-168
unction	-169
this	-170
ther	-171
▁this	-172
▁are	-173
wh	-174
ame	-175
amp	-176
ur	-177
im	-178
rom	-179
▁valu	-180
ha	-181
▁on	-182
▁I	-183
be	-184
="	-185
ine	-186
▁an	-187
iv	-188
ror	-189
")	-190
ign	-191
po	-192
IN	-193
ff	-194
▁as	-195
▁P	-196
▁N	-197
ld	-198
▁con	-199
imp	-200
oun	-201
ib	-202
▁o	-203
red	-204
with	-205
▁4	-206
▁de	-207
act	-208
omp	-209
▁mean	-210
),	-211
▁R	-212
ific	-213
ach	-214
ces	-215
▁it	-216
li	-217
▁with	-218
pe	-219
▁pro	-220
10	-221
error	-222
▁-	-223
ated	-224
tim	-225
ich	-226
ual	-227
▁be	-228
one	-229
ould	-230
pro	-231
am	-232
con	-233
▁exp	-234
ignific	-235
1.	-236
▁r	-237
▁st	-238
9)	-239
▁data	-240
low	-241
then	-242
by	-243
gre	-244
ents	-245
▁F	-246
ind	-247
lot	-248
ares	-249
ample	-250
ort	-251
value	-252
▁by	-253
ri	-254
▁5	-255
data	-256
ive	-257
eca	-258
ignificant	-259
row	-260
▁sum	-261
mal	-262
vi	-263
:12	-264
ecause	-265
od	-266
The	-267
▁6	-268
sion	-269
ex	-270
▁differen	-271
idual	-272
pon	-273
ure	-274
arden	-275
33	-276
▁value	-277
lu	-278
istr	-279
AN	-280
TR	-281
so	-282
ted	-283
▁C	-284
:129)	-285
ations	-286
▁le	-287
eed	-288
ON	-289
▁so	-290
sis	-291
ponse	-292
uc	-293
▁This	-294
ator	-295
))	-296
values	-297
SS	-298
▁function	-299
iz	-300
par	-301
sum	-302
etwe	-303
tain	-304
ary	-305
ase	-306
▁number	-307
▁SS	-308
ill	-309
▁not	-310
istic	-311
▁inter	-312
log	-313
per	-314
ally	-315
▁res	-316
etween	-317
istrib	-318
TA	-319
ph	-320
▁us	-321
exp	-322
ables	-323
▁un	-324
ence	-325
ility	-326
ution	-327
GR	-328
▁B	-329
▁T	-330
vel	-331
11	-332
der	-333
lan	-334
alc	-335
▁po	-336
there	-337
you	-338
▁at	-339
pt	-340
not	-341
squ	-342
el	-343
ore	-344
In	-345
see	-346
▁two	-347
ike	-348
ment	-349
alcul	-350
▁from	-351
iffiffiffiff	-352
test	-353
ability	-354
istribution	-355
aly	-356
ust	-357
more	-358
int	-359
pl	-360
ci	-361
way	-362
iss	-363
inear	-364
ameter	-365
two	-366
.2	-367
▁X	-368
fre	-369
reat	-370
how	-371
▁or	-372
ector	-373
atistic	-374
ist	-375
▁there	-376
TION	-377
irst	-378
▁se	-379
edom	-380
from	-381
estim	-382
andard	-383
95	-384
col	-385
▁can	-386
▁like	-387
**	-388
ial	-389
now	-390
ypo	-391
.5	-392
▁0	-393
16	-394
75	-395
ting	-396
alysis	-397
cs	-398
fit	-399
▁which	-400
",	-401
CS	-402
DU	-403
US	-404
DUC	-405
STI	-406
TRO	-407
ANIN	-408
INGR	-409
TATI	-410
cept	-411
STICS	-412
ative	-413
▁comp	-414
TIONUS	-415
TRODUC	-416
▁STATI	-417
function	-418
ANINTRODUC	-419
TIONUSINGR	-420
▁STATISTICS	-421
14	-422
end	-423
form	-424
grees	-425
te	-426
ork	-427
orre	-428
inter	-429
variance	-430
▁ex	-431
meas	-432
action	-433
ens	-434
▁plot	-435
ypothes	-436
22	-437
gth	-438
▁In	-439
ass	-440
▁par	-441
▁D	-442
age	-443
ved	-444
ength	-445
▁error	-446
.0	-447
garden	-448
▁ab	-449
ates	-450
than	-451
ans	-452
know	-453
inthe	-454
app	-455
differen	-456
\\	-457
co	-458
actor	-459
ormal	-460
up	-461
▁O	-462
ount	-463
0,	-464
term	-465
ypothesis	-466
ree	-467
ression	-468
▁"	-469
csv	-470
have	-471
▁you	-472
bability	-473
atory	-474
▁values	-475
pec	-476
rou	-477
▁out	-478
.8	-479
tal	-480
▁ch	-481
▁variance	-482
2)	-483
ven	-484
ak	-485
ong	-486
ortant	-487
lanatory	-488
redic	-489
ud	-490
ide	-491
alled	-492
ull	-493
▁variable	-494
""	-495
thatthe	-496
96	-497
eff	-498
comp	-499
viance	-500
1,	-501
15	-502
iti	-503
oth	-504
▁than	-505
▁then	-506
ty	-507
▁tr	-508
ave	-509
important	-510
("	-511
ok	-512
ess	-513
inom	-514
18	-515
eg	-516
ical	-517
▁M	-518
▁al	-519
read	-520
2,	-521
gra	-522
▁do	-523
▁Now	-524
▁because	-525
▁E	-526
▁It	-527
▁We	-528
number	-529
88	-530
ult	-531
like	-532
ew	-533
▁9	-534
ared	-535
hould	-536
inomial	-537
bs	-538
▁app	-539
freedom	-540
hi	-541
ous	-542
uch	-543
ange	-544
▁use	-545
isthe	-546
ast	-547
offreedom	-548
34	-549
mary	-550
ail	-551
ood	-552
▁squ	-553
1)	-554
xv	-555
▁qu	-556
iven	-557
▁means	-558
▁between	-559
which	-560
amples	-561
06	-562
20	-563
upp	-564
vels	-565
means	-566
▁8	-567
edi	-568
fin	-569
lab	-570
ects	-571
▁when	-572
andthe	-573
response	-574
variable	-575
ax	-576
arg	-577
▁each	-578
19	-579
du	-580
any	-581
ater	-582
cess	-583
just	-584
squares	-585
ag	-586
ars	-587
but	-588
enti	-589
lope	-590
▁but	-591
other	-592
greesoffreedom	-593
38	-594
▁7	-595
when	-596
▁significant	-597
ome	-598
eedto	-599
temp	-600
length	-601
enc	-602
▁no	-603
▁have	-604
▁There	-605
because	-606
reatment	-607
It	-608
VA	-609
▁H	-610
iduals	-611
impl	-612
)/	-613
):	-614
25	-615
do	-616
ines	-617
ition	-618
0.0	-619
ext	-620
1:	-621
2.	-622
65	-623
gh	-624
ize	-625
tro	-626
▁if	-627
orrel	-628
▁estim	-629
gression	-630
17	-631
AL	-632
ll	-633
its	-634
▁10	-635
fore	-636
3)	-637
ov	-638
ise	-639
isto	-640
▁eff	-641
orm	-642
wec	-643
▁called	-644
ue	-645
▁i	-646
ake	-647
ici	-648
lue	-649
▁our	-650
▁what	-651
measure	-652
▁summary	-653
variables	-654
ish	-655
ener	-656
time	-657
ating	-658
▁using	-659
ss	-660
ases	-661
ures	-662
will	-663
zone	-664
▁sample	-665
dd	-666
cri	-667
ink	-668
min	-669
por	-670
lear	-671
between	-672
ful	-673
This	-674
ameters	-675
▁different	-676
▁distribution	-677
plot	-678
btain	-679
▁test	-680
ensity	-681
▁difference	-682
▁1.	-683
portion	-684
▁response	-685
hypothesis	-686
98	-687
100	-688
anti	-689
ound	-690
▁fre	-691
45	-692
lm	-693
tric	-694
▁how	-695
effici	-696
▁linear	-697
ox	-698
pr	-699
▁L	-700
hap	-701
▁work	-702
▁variables	-703
66	-704
duc	-705
most	-706
can	-707
look	-708
tobe	-709
▁has	-710
total	-711
tothe	-712
▁term	-713
calcul	-714
distribution	-715
3,	-716
raw	-717
ency	-718
first	-719
str	-720
bser	-721
ject	-722
stand	-723
▁factor	-724
4,	-725
ES	-726
▁co	-727
0.00	-728
ames	-729
roup	-730
tach	-731
▁log	-732
ments	-733
redict	-734
vector	-735
▁statistic	-736
▁see	-737
ofsquares	-738
▁important	-739
ie	-740
ula	-741
zer	-742
▁St	-743
case	-744
ever	-745
plic	-746
what	-747
ances	-748
▁need	-749
ft	-750
os	-751
ead	-752
ove	-753
▁su	-754
valueof	-755
▁calcul	-756
▁fit	-757
isson	-758
▁more	-759
weight	-760
▁vector	-761
mb	-762
cre	-763
▁Res	-764
▁one	-765
thing	-766
tical	-767
▁standard	-768
▁explanatory	-769
▁interaction	-770
.9	-771
ep	-772
andom	-773
ected	-774
ollow	-775
squared	-776
:\\	-777
kew	-778
ple	-779
trol	-780
▁min	-781
▁table	-782
24	-783
▁k	-784
rit	-785
line	-786
want	-787
▁same	-788
▁these	-789
▁attach	-790
▁numbers	-791
▁squares	-792
▁analysis	-793
30	-794
85	-795
ers	-796
ote	-797
using	-798
where	-799
ased	-800
econ	-801
erim	-802
work	-803
▁0.0	-804
table	-805
ansform	-806
statistic	-807
▁14	-808
ulti	-809
very	-810
▁-0.	-811
onthe	-812
▁0.00	-813
ationshi	-814
derstand	-815
:5	-816
ALS	-817
ack	-818
div	-819
pre	-820
vol	-821
▁An	-822
▁equ	-823
▁over	-824
standard	-825
67	-826
no	-827
***	-828
ays	-829
fra	-830
▁AN	-831
lots	-832
EN	-833
OVA	-834
rat	-835
blue	-836
cies	-837
tern	-838
ving	-839
were	-840
would	-841
▁about	-842
ationship	-843
different	-844
▁probability	-845
ct	-846
ute	-847
edby	-848
entr	-849
▁all	-850
▁str	-851
pecif	-852
▁given	-853
bserved	-854
▁normal	-855
efficients	-856
was	-857
▁any	-858
encies	-859
idence	-860
linear	-861
rather	-862
▁models	-863
deviance	-864
orrelation	-865
probability	-866
LES	-867
apply	-868
▁lines	-869
binomial	-870
lationship	-871
.7	-872
yv	-873
air	-874
cal	-875
cur	-876
equ	-877
rowth	-878
▁Here	-879
forthe	-880
.4	-881
▁G	-882
ath	-883
rown	-884
ways	-885
wehave	-886
ix	-887
You	-888
eck	-889
own	-890
tin	-891
▁12	-892
hows	-893
imal	-894
only	-895
frame	-896
ption	-897
eneedto	-898
significant	-899
ann	-900
ger	-901
▁NA	-902
mall	-903
▁col	-904
rough	-905
trast	-906
▁form	-907
egative	-908
analysis	-909
13	-910
umn	-911
val	-912
wer	-913
▁So	-914
asts	-915
ible	-916
itis	-917
less	-918
medi	-919
ether	-920
ential	-921
▁should	-922
▁intercept	-923
4)	-924
78	-925
ry	-926
art	-927
ies	-928
put	-929
rix	-930
ten	-931
pend	-932
▁gra	-933
annin	-934
atrix	-935
itive	-936
eneral	-937
umberof	-938
▁errors	-939
▁garden	-940
(>	-941
68	-942
ap	-943
yes	-944
▁pl	-945
tinu	-946
zero	-947
▁SSX	-948
▁cur	-949
wecan	-950
▁[1]"	-951
estion	-952
uccess	-953
▁parameters	-954
clu	-955
reg	-956
urn	-957
ves	-958
▁Pr	-959
tice	-960
▁will	-961
factor	-962
▁[1]1.	-963
withthe	-964
quencies	-965
valuesof	-966
parameter	-967
UE	-968
ace	-969
ily	-970
TRUE	-971
ling	-972
rror	-973
▁non	-974
metic	-975
ozone	-976
times	-977
ollowing	-978
AM	-979
If	-980
ose	-981
hand	-982
umer	-983
arith	-984
▁case	-985
▁were	-986
▁where	-987
density	-988
▁hypothesis	-989
74	-990
ht	-991
has	-992
▁sh	-993
arac	-994
ason	-995
imum	-996
norm	-997
▁point	-998
aracter	-999
▁levels	-1000
▁effects	-1001
▁differences	-1002
50	-1003
io	-1004
even	-1005
There	-1006
indiv	-1007
▁diff	-1008
models	-1009
▁graph	-1010
▁names	-1011
▁thing	-1012
▁experim	-1013
05	-1014
▁q	-1015
▁up	-1016
▁yv	-1017
lain	-1018
lower	-1019
▁most	-1020
thesum	-1021
▁appro	-1022
numbers	-1023
ullhypothesis	-1024
36	-1025
=2	-1026
get	-1027
iom	-1028
3333	-1029
arge	-1030
▁add	-1031
graph	-1032
iomass	-1033
isthat	-1034
normal	-1035
trasts	-1036
ternative	-1037
We	-1038
ats	-1039
pri	-1040
▁ac	-1041
▁pr	-1042
cent	-1043
gain	-1044
ield	-1045
ular	-1046
▁get	-1047
▁way	-1048
ounts	-1049
resent	-1050
timate	-1051
▁first	-1052
▁regression	-1053
.1	-1054
0.9	-1055
ble	-1056
ALSE	-1057
akes	-1058
cted	-1059
male	-1060
tail	-1061
isper	-1062
tract	-1063
▁both	-1064
▁length	-1065
▁example	-1066
ignificantly	-1067
(0,	-1068
loc	-1069
rep	-1070
▁xy	-1071
Itis	-1072
date	-1073
rong	-1074
▁ver	-1075
▁good	-1076
▁high	-1077
▁freedom	-1078
94	-1079
og	-1080
0.5	-1081
lic	-1082
oot	-1083
sex	-1084
▁Co	-1085
▁xv	-1086
root	-1087
atter	-1088
point	-1089
▁know	-1090
▁left	-1091
▁want	-1092
fidence	-1093
▁random	-1094
▁degrees	-1095
▁measure	-1096
treatment	-1097
degreesoffreedom	-1098
responsevariable	-1099
28	-1100
he	-1101
fam	-1102
pul	-1103
sin	-1104
ateg	-1105
iffi	-1106
ired	-1107
they	-1108
used	-1109
about	-1110
isnot	-1111
▁time	-1112
depend	-1113
▁terms	-1114
fromthe	-1115
plication	-1116
35	-1117
IC	-1118
mon	-1119
pch	-1120
▁If	-1121
soci	-1122
▁was	-1123
actly	-1124
gardenB	-1125
predict	-1126
▁control	-1127
0)	-1128
0:	-1129
29	-1130
47	-1131
bx	-1132
ade	-1133
tob	-1134
var	-1135
ype	-1136
list	-1137
type	-1138
ategor	-1139
errors	-1140
fitted	-1141
ically	-1142
oisson	-1143
▁right	-1144
▁total	-1145
thesame	-1146
▁obtain	-1147
▁estimate	-1148
3.	-1149
44	-1150
:4)	-1151
ear	-1152
emp	-1153
ied	-1154
izes	-1155
odel	-1156
above	-1157
econd	-1158
pecify	-1159
tannin	-1160
▁simpl	-1161
▁weight	-1162
arithmetic	-1163
▁Coefficients	-1164
fa	-1165
ms	-1166
But	-1167
^2)	-1168
asy	-1169
▁16	-1170
high	-1171
ints	-1172
ature	-1173
light	-1174
quate	-1175
▁only	-1176
▁they	-1177
▁very	-1178
ertain	-1179
growth	-1180
levels	-1181
priate	-1182
thereis	-1183
▁produc	-1184
▁rather	-1185
thereare	-1186
difference	-1187
interaction	-1188
08	-1189
23	-1190
xy	-1191
non	-1192
urv	-1193
four	-1194
Inter	-1195
asing	-1196
brown	-1197
etter	-1198
▁just	-1199
called	-1200
dition	-1201
obtain	-1202
quanti	-1203
▁other	-1204
cidence	-1205
▁treatment	-1206
explanatory	-1207
▁statistical	-1208
64	-1209
AMP	-1210
Let	-1211
SSY	-1212
▁Es	-1213
▁des	-1214
centr	-1215
these	-1216
▁Note	-1217
AMPLES	-1218
ssible	-1219
totals	-1220
▁FALSE	-1221
▁would	-1222
tinuous	-1223
sociated	-1224
weneedto	-1225
ispersion	-1226
ategorical	-1227
proportion	-1228
▁understand	-1229
(4	-1230
32	-1231
SSE	-1232
asi	-1233
ick	-1234
ons	-1235
▁15	-1236
▁De	-1237
reme	-1238
ture	-1239
▁SSE	-1240
inary	-1241
▁much	-1242
▁null	-1243
▁used	-1244
wewant	-1245
▁ANOVA	-1246
▁cases	-1247
▁count	-1248
ometric	-1249
themean	-1250
numberof	-1251
▁binomial	-1252
:3)	-1253
=0.	-1254
ank	-1255
pts	-1256
▁28	-1257
cale	-1258
mbol	-1259
over	-1260
▁SSY	-1261
group	-1262
place	-1263
▁your	-1264
likely	-1265
▁level	-1266
▁fitted	-1267
▁formula	-1268
Intercept	-1269
(1	-1270
OS	-1271
For	-1272
com	-1273
ell	-1274
ofs	-1275
ofx	-1276
▁OF	-1277
inal	-1278
theb	-1279
▁-1.	-1280
▁big	-1281
level	-1282
▁Thes	-1283
Thisis	-1284
▁defin	-1285
▁indiv	-1286
ticular	-1287
▁Estimate	-1288
▁experiment	-1289
▁correlation	-1290
%%	-1291
ob	-1292
qr	-1293
|)	-1294
▁^	-1295
ered	-1296
eyes	-1297
many	-1298
them	-1299
▁But	-1300
imply	-1301
ymbol	-1302
▁look	-1303
▁skew	-1304
catter	-1305
▁incre	-1306
▁slope	-1307
▁contain	-1308
variances	-1309
ffiffiffiffiff	-1310
((	-1311
ru	-1312
:5)	-1313
ker	-1314
say	-1315
▁11	-1316
▁20	-1317
ears	-1318
iver	-1319
land	-1320
thef	-1321
thel	-1322
uted	-1323
▁AIC	-1324
clude	-1325
itial	-1326
might	-1327
three	-1328
▁Then	-1329
lained	-1330
udents	-1331
▁great	-1332
percent	-1333
themodel	-1334
thiscase	-1335
ansformation	-1336
92	-1337
▁z	-1338
hen	-1339
ook	-1340
ord	-1341
qrt	-1342
▁17	-1343
▁To	-1344
area	-1345
both	-1346
ized	-1347
lass	-1348
▁For	-1349
▁You	-1350
ately	-1351
count	-1352
▁some	-1353
allthe	-1354
quency	-1355
umeric	-1356
verage	-1357
▁group	-1358
▁three	-1359
formula	-1360
▁tapply	-1361
sumption	-1362
▁samples	-1363
calculate	-1364
intercept	-1365
▁residual	-1366
▁proportion	-1367
▁significantly	-1368
37	-1369
59	-1370
6,	-1371
RI	-1372
ne	-1373
▁j	-1374
EGR	-1375
ESS	-1376
ION	-1377
key	-1378
ova	-1379
pol	-1380
ump	-1381
xis	-1382
Vari	-1383
ough	-1384
tive	-1385
▁114	-1386
▁row	-1387
bscri	-1388
▁REGR	-1389
ESSION	-1390
produc	-1391
sitive	-1392
▁clear	-1393
▁invol	-1394
gardenA	-1395
olation	-1396
▁comple	-1397
ification	-1398
▁negative	-1399
▁variation	-1400
▁REGRESSION	-1401
)[	-1402
IX	-1403
fer	-1404
flu	-1405
old	-1406
▁-2	-1407
▁19	-1408
0000	-1409
Then	-1410
What	-1411
anch	-1412
core	-1413
hair	-1414
haps	-1415
iter	-1416
ixed	-1417
side	-1418
wise	-1419
▁com	-1420
▁pre	-1421
▁say	-1422
argum	-1423
▁four	-1424
thisis	-1425
▁Model	-1426
▁large	-1427
ultiple	-1428
▁quanti	-1429
pulation	-1430
▁deviance	-1431
individual	-1432
probabilityof	-1433
31	-1434
55	-1435
di	-1436
vs	-1437
ATA	-1438
ang	-1439
ark	-1440
esh	-1441
ice	-1442
ory	-1443
raz	-1444
sow	-1445
top	-1446
uil	-1447
▁2.	-1448
axis	-1449
bars	-1450
ives	-1451
▁Std	-1452
▁ans	-1453
▁set	-1454
▁smo	-1455
aired	-1456
order	-1457
thequ	-1458
▁DATA	-1459
family	-1460
redicted	-1461
▁Residual	-1462
09	-1463
2=	-1464
39	-1465
St	-1466
yy	-1467
","	-1468
ANC	-1469
Now	-1470
aov	-1471
ash	-1472
gin	-1473
tof	-1474
wed	-1475
▁-1	-1476
▁sp	-1477
VARI	-1478
aris	-1479
peed	-1480
supp	-1481
edian	-1482
upper	-1483
▁line	-1484
thetwo	-1485
▁above	-1486
▁curve	-1487
▁reason	-1488
incidence	-1489
variation	-1490
▁categorical	-1491
01	-1492
10,	-1493
cor	-1494
ile	-1495
pow	-1496
aken	-1497
arry	-1498
dulo	-1499
each	-1500
sare	-1501
stra	-1502
ties	-1503
uilt	-1504
your	-1505
▁0.5	-1506
Error	-1507
arger	-1508
fault	-1509
ights	-1510
isher	-1511
ratio	-1512
▁SSXY	-1513
eshall	-1514
modulo	-1515
samples	-1516
thedata	-1517
▁always	-1518
estimate	-1519
formation	-1520
isolation	-1521
▁interval	-1522
frequencies	-1523
76	-1524
nt	-1525
su	-1526
3.2	-1527
Inf	-1528
glm	-1529
ird	-1530
ite	-1531
▁18	-1532
▁95	-1533
▁di	-1534
▁me	-1535
alto	-1536
days	-1537
draw	-1538
ests	-1539
orth	-1540
sqrt	-1541
▁age	-1542
▁per	-1543
▁sub	-1544
death	-1545
ither	-1546
ually	-1547
▁less	-1548
▁meas	-1549
▁sort	-1550
▁zero	-1551
actice	-1552
aximum	-1553
certain	-1554
vention	-1555
▁answer	-1556
▁points	-1557
▁whether	-1558
dependent	-1559
parameters	-1560
▁following	-1561
▁appropriate	-1562
48	-1563
=0	-1564
De	-1565
br	-1566
cc	-1567
Sum	-1568
add	-1569
▁go	-1570
gram	-1571
idea	-1572
turn	-1573
xlab	-1574
▁SSA	-1575
check	-1576
plots	-1577
▁show	-1578
▁size	-1579
▁writ	-1580
inally	-1581
ingthe	-1582
lution	-1583
ofthes	-1584
▁ozone	-1585
▁their	-1586
workout	-1587
▁within	-1588
uccesses	-1589
▁predict	-1590
▁observed	-1591
centration	-1592
statistical	-1593
▁relationship	-1594
46	-1595
73	-1596
An	-1597
^2	-1598
asa	-1599
ety	-1600
gen	-1601
mer	-1602
odd	-1603
seq	-1604
sof	-1605
lipp	-1606
thod	-1607
▁its	-1608
▁var	-1609
Letus	-1610
defin	-1611
uning	-1612
▁TRUE	-1613
▁make	-1614
answer	-1615
ucture	-1616
update	-1617
▁small	-1618
foreach	-1619
greater	-1620
ritical	-1621
▁counts	-1622
▁effect	-1623
likethis	-1624
observed	-1625
▁Poisson	-1626
▁general	-1627
▁initial	-1628
▁through	-1629
character	-1630
▁possible	-1631
regression	-1632
sumofsquares	-1633
standarderror	-1634
(-	-1635
Df	-1636
So	-1637
(>|	-1638
10)	-1639
dat	-1640
ean	-1641
til	-1642
tom	-1643
▁25	-1644
▁Df	-1645
good	-1646
ides	-1647
main	-1648
much	-1649
pill	-1650
pret	-1651
seud	-1652
sort	-1653
▁0.6	-1654
▁Sum	-1655
▁med	-1656
▁new	-1657
0.975	-1658
aight	-1659
cases	-1660
ingle	-1661
stant	-1662
▁does	-1663
▁even	-1664
▁link	-1665
▁true	-1666
cansee	-1667
lement	-1668
sample	-1669
▁anova	-1670
▁might	-1671
biomass	-1672
contain	-1673
effects	-1674
poisson	-1675
seudore	-1676
▁median	-1677
▁useful	-1678
aterpill	-1679
question	-1680
▁density	-1681
thenumber	-1682
▁parameter	-1683
▁variances	-1684
▁arithmetic	-1685
▁covariance	-1686
seudoreplication	-1687
04	-1688
2:	-1689
2]	-1690
5,	-1691
HE	-1692
NA	-1693
cl	-1694
Chi	-1695
ask	-1696
may	-1697
ofa	-1698
ole	-1699
ots	-1700
rob	-1701
sed	-1702
▁ge	-1703
blem	-1704
come	-1705
dist	-1706
left	-1707
must	-1708
reli	-1709
▁div	-1710
▁odd	-1711
corre	-1712
iling	-1713
imple	-1714
incre	-1715
▁them	-1716
issing	-1717
onents	-1718
▁corre	-1719
▁produ	-1720
example	-1721
licated	-1722
robanch	-1723
whether	-1724
expected	-1725
istogram	-1726
tingency	-1727
▁question	-1728
analysisof	-1729
▁continuous	-1730
▁alternative	-1731
ma	-1732
=16	-1733
Box	-1734
els	-1735
▁No	-1736
▁ob	-1737
ANCE	-1738
does	-1739
oral	-1740
ward	-1741
▁ade	-1742
adrat	-1743
appro	-1744
based	-1745
lying	-1746
ultip	-1747
▁five	-1748
▁long	-1749
▁temp	-1750
▁class	-1751
▁start	-1752
gardenC	-1753
lipping	-1754
wouldbe	-1755
▁change	-1756
▁expect	-1757
▁result	-1758
alysisof	-1759
interval	-1760
▁[1]1.10	-1761
▁however	-1762
▁process	-1763
reatments	-1764
▁equation	-1765
aterpillar	-1766
▁calculate	-1767
▁dataframe	-1768
▁Analysisof	-1769
fidenceinterval	-1770
6)	-1771
71	-1772
79	-1773
:8	-1774
bg	-1775
df	-1776
op	-1777
▁*	-1778
▁<	-1779
2<-	-1780
END	-1781
abx	-1782
inR	-1783
=21,	-1784
gree	-1785
kind	-1786
ning	-1787
sing	-1788
thep	-1789
ured	-1790
▁imp	-1791
Count	-1792
again	-1793
atthe	-1794
ustry	-1795
▁down	-1796
▁find	-1797
▁into	-1798
▁sele	-1799
change	-1800
hapter	-1801
ormore	-1802
▁times	-1803
extract	-1804
▁likely	-1805
contrast	-1806
thefirst	-1807
thequick	-1808
theright	-1809
edifferen	-1810
▁contrast	-1811
inthiscase	-1812
▁contrasts	-1813
reliability	-1814
▁frequencies	-1815
80	-1816
[,	-1817
▁=	-1818
000	-1819
eri	-1820
sol	-1821
tiv	-1822
▁24	-1823
▁4.	-1824
ecan	-1825
into	-1826
mber	-1827
ness	-1828
phid	-1829
youn	-1830
▁bar	-1831
))^2)	-1832
10000	-1833
asthe	-1834
carry	-1835
ellow	-1836
given	-1837
terms	-1838
tover	-1839
▁axis	-1840
▁best	-1841
▁type	-1842
ofthis	-1843
pecies	-1844
tivity	-1845
wantto	-1846
▁below	-1847
▁minus	-1848
adratic	-1849
knowthe	-1850
thenthe	-1851
▁square	-1852
bscripts	-1853
estimates	-1854
▁adequate	-1855
dispersion	-1856
understand	-1857
▁estimated	-1858
ignificance	-1859
▁particular	-1860
▁individuals	-1861
▁interactions	-1862
5)	-1863
5.	-1864
72	-1865
SSX	-1866
WOS	-1867
ech	-1868
hal	-1869
ime	-1870
iqu	-1871
ofy	-1872
zed	-1873
▁13	-1874
Thes	-1875
ably	-1876
acke	-1877
oice	-1878
some	-1879
tree	-1880
trib	-1881
urto	-1882
ylab	-1883
▁How	-1884
▁now	-1885
▁sex	-1886
erest	-1887
icult	-1888
ities	-1889
▁TWOS	-1890
▁When	-1891
▁here	-1892
▁main	-1893
▁step	-1894
ackets	-1895
chance	-1896
▁check	-1897
▁separ	-1898
▁wrong	-1899
lements	-1900
thanthe	-1901
▁descri	-1902
▁things	-1903
Thereare	-1904
VARIANCE	-1905
atingthe	-1906
robanche	-1907
explained	-1908
▁Students	-1909
▁expected	-1910
functionto	-1911
▁residuals	-1912
differences	-1913
▁TWOSAMPLES	-1914
▁assumption	-1915
numberofnumbers	-1916
therelationship	-1917
6.	-1918
0.6	-1919
SSR	-1920
[1:	-1921
aus	-1922
dle	-1923
isq	-1924
▁22	-1925
▁36	-1926
▁As	-1927
▁br	-1928
ande	-1929
cell	-1930
ople	-1931
true	-1932
▁0.8	-1933
▁ind	-1934
▁int	-1935
▁try	-1936
Using	-1937
clear	-1938
divid	-1939
iddle	-1940
stead	-1941
▁Null	-1942
▁tree	-1943
tively	-1944
willbe	-1945
xample	-1946
extreme	-1947
fitting	-1948
perator	-1949
Function	-1950
▁exactly	-1951
▁greater	-1952
▁maximum	-1953
▁specify	-1954
adifferen	-1955
▁Numberof	-1956
▁critical	-1957
▁involved	-1958
convention	-1959
iffiffiffi	-1960
(2	-1961
56	-1962
77	-1963
9,	-1964
Sq	-1965
mv	-1966
(1,	-1967
4.5	-1968
One	-1969
abl	-1970
ced	-1971
lih	-1972
lim	-1973
off	-1974
)/2)	-1975
Data	-1976
best	-1977
dose	-1978
ings	-1979
lose	-1980
rase	-1981
real	-1982
seep	-1983
step	-1984
vant	-1985
▁***	-1986
▁2.2	-1987
lines	-1988
ously	-1989
sothe	-1990
under	-1991
wayof	-1992
weuse	-1993
▁area	-1994
▁fact	-1995
coring	-1996
lihood	-1997
razing	-1998
stance	-1999
tailed	-2000
uppose	-2001
urther	-2002
useful	-2003
ymbols	-2004
▁could	-2005
▁equal	-2006
▁shall	-2007
▁speed	-2008
compare	-2009
control	-2010
exactly	-2011
pruning	-2012
▁Notice	-2013
▁before	-2014
▁matrix	-2015
▁second	-2016
onential	-2017
pecified	-2018
▁compute	-2019
▁scatter	-2020
contrasts	-2021
▁Deviance	-2022
▁obtained	-2023
▁simplest	-2024
associated	-2025
covariance	-2026
▁condition	-2027
▁confidence	-2028
3]	-2029
4.	-2030
52	-2031
UN	-2032
▁}	-2033
%%2	-2034
ams	-2035
elp	-2036
had	-2037
iin	-2038
ina	-2039
▁29	-2040
▁On	-2041
▁SE	-2042
atur	-2043
enot	-2044
onot	-2045
rank	-2046
ults	-2047
writ	-2048
▁emp	-2049
aking	-2050
liers	-2051
ourse	-2052
produ	-2053
shows	-2054
▁0.06	-2055
▁head	-2056
▁rate	-2057
▁remo	-2058
▁such	-2059
▁ylab	-2060
better	-2061
column	-2062
median	-2063
ofdata	-2064
▁again	-2065
▁lower	-2066
▁shows	-2067
numeric	-2068
ofthese	-2069
urtosis	-2070
▁column	-2071
clipping	-2072
▁average	-2073
pollution	-2074
coefficients	-2075
.-	-2076
02	-2077
89	-2078
IS	-2079
YS	-2080
aN	-2081
fr	-2082
:2)	-2083
]<-	-2084
bes	-2085
big	-2086
▁AP	-2087
▁ar	-2088
ALYS	-2089
cise	-2090
clud	-2091
devi	-2092
down	-2093
here	-2094
itro	-2095
plit	-2096
=0.00	-2097
below	-2098
green	-2099
integ	-2100
ready	-2101
score	-2102
swith	-2103
taken	-2104
▁root	-2105
ALYSIS	-2106
Fisher	-2107
amount	-2108
erhaps	-2109
ession	-2110
finity	-2111
ineach	-2112
▁argum	-2113
▁every	-2114
▁upper	-2115
FisherS	-2116
eshould	-2117
fluence	-2118
forward	-2119
itrogen	-2120
specify	-2121
▁bigger	-2122
Variance	-2123
lessthan	-2124
plicates	-2125
theerror	-2126
theslope	-2127
▁minimal	-2128
represent	-2129
transform	-2130
▁ANALYSIS	-2131
▁straight	-2132
coringiter	-2133
xplanatory	-2134
▁[1]1.1088	-2135
▁geometric	-2136
Caterpillar	-2137
thevariance	-2138
▁associated	-2139
▁calculating	-2140
▁Nulldeviance	-2141
▁concentration	-2142
▁transformation	-2143
coringiterations	-2144
▁NumberofFisherS	-2145
..	-2146
40	-2147
AG	-2148
GU	-2149
af	-2150
go	-2151
mf	-2152
195	-2153
AGE	-2154
LAN	-2155
[1]	-2156
inf	-2157
ony	-2158
sim	-2159
tle	-2160
▁-3	-2161
▁3.	-2162
▁38	-2163
▁Ar	-2164
▁Gr	-2165
=0.0	-2166
ENTI	-2167
PEND	-2168
Surv	-2169
alse	-2170
anel	-2171
atio	-2172
atus	-2173
eare	-2174
gend	-2175
omin	-2176
onal	-2177
pped	-2178
ress	-2179
▁Con	-2180
▁ESS	-2181
▁Let	-2182
▁THE	-2183
▁dim	-2184
▁key	-2185
▁may	-2186
GUAGE	-2187
dnorm	-2188
eight	-2189
ingto	-2190
lants	-2191
mfrow	-2192
round	-2193
weigh	-2194
wrong	-2195
yield	-2196
▁RLAN	-2197
▁bars	-2198
▁draw	-2199
▁next	-2200
PENDIX	-2201
ection	-2202
gether	-2203
member	-2204
monstr	-2205
result	-2206
softhe	-2207
status	-2208
urvreg	-2209
yellow	-2210
▁Grass	-2211
▁[1]0.	-2212
▁whole	-2213
ENTIALS	-2214
ametric	-2215
ationof	-2216
sexmale	-2217
▁colour	-2218
▁correl	-2219
adequate	-2220
bychance	-2221
mination	-2222
certainty	-2223
efficient	-2224
essential	-2225
frequency	-2226
theanswer	-2227
▁APPENDIX	-2228
▁positive	-2229
calculated	-2230
istributed	-2231
thatthetwo	-2232
▁Grassland	-2233
▁RLANGUAGE	-2234
▁character	-2235
▁estimates	-2236
▁functions	-2237
greaterthan	-2238
individuals	-2239
▁ESSENTIALS	-2240
thesumofsquares	-2241
▁overdispersion	-2242
aresignificantly	-2243
7)	-2244
=3	-2245
AB	-2246
Un	-2247
bu	-2248
pi	-2249
111	-2250
2))	-2251
ING	-2252
Pro	-2253
Wew	-2254
aid	-2255
loy	-2256
ren	-2257
try	-2258
▁0:	-2259
▁49	-2260
▁52	-2261
call	-2262
ccup	-2263
fine	-2264
gets	-2265
iden	-2266
lier	-2267
link	-2268
mode	-2269
plac	-2270
sand	-2271
urpr	-2272
▁3.0	-2273
▁ask	-2274
▁chi	-2275
Aphid	-2276
aving	-2277
could	-2278
gives	-2279
ifyou	-2280
indic	-2281
olumn	-2282
roots	-2283
separ	-2284
thede	-2285
▁Mean	-2286
▁SING	-2287
▁[1]1	-2288
▁[1]5	-2289
▁many	-2290
ension	-2291
entral	-2292
grazed	-2293
ishigh	-2294
method	-2295
othing	-2296
ounded	-2297
▁Error	-2298
▁First	-2299
▁[1]10	-2300
▁indic	-2301
▁range	-2302
ceiling	-2303
replace	-2304
▁better	-2305
▁highly	-2306
▁prefer	-2307
carryout	-2308
measures	-2309
practice	-2310
straight	-2311
valueofy	-2312
▁Chapter	-2313
▁SINGLES	-2314
▁problem	-2315
following	-2316
identical	-2317
▁constant	-2318
sofsquares	-2319
▁Residuals	-2320
▁difficult	-2321
▁quadratic	-2322
▁treatments	-2323
▁SINGLESAMPLES	-2324
▁sampleestimates	-2325
(7	-2326
To	-2327
tw	-2328
▁V	-2329
"),	-2330
149	-2331
3<-	-2332
bar	-2333
ede	-2334
isk	-2335
ley	-2336
ody	-2337
sel	-2338
vmv	-2339
▁1-	-2340
▁[,	-2341
▁ad	-2342
▁lm	-2343
Aand	-2344
Craw	-2345
Note	-2346
cond	-2347
fail	-2348
ided	-2349
ince	-2350
ival	-2351
ouse	-2352
part	-2353
sout	-2354
ssib	-2355
text	-2356
thed	-2357
vert	-2358
▁2.5	-2359
▁loc	-2360
▁reg	-2361
▁sol	-2362
acket	-2363
begin	-2364
elled	-2365
outof	-2366
quare	-2367
small	-2368
toget	-2369
trodu	-2370
▁Wind	-2371
▁blue	-2372
▁well	-2373
333333	-2374
Sample	-2375
enomin	-2376
matrix	-2377
ogonal	-2378
reject	-2379
should	-2380
▁ratio	-2381
Crawley	-2382
atement	-2383
getting	-2384
istance	-2385
ization	-2386
pically	-2387
thatyou	-2388
vidence	-2389
▁really	-2390
▁simple	-2391
critical	-2392
quantile	-2393
▁against	-2394
▁without	-2395
functions	-2396
takentobe	-2397
Dispersion	-2398
enominator	-2399
troduction	-2400
▁modelling	-2401
thenumberof	-2402
▁OFVARIANCE	-2403
▁calculated	-2404
issingvalues	-2405
parameterfor	-2406
thatthereare	-2407
▁coefficient	-2408
▁independent	-2409
▁measurements	-2410
familytakentobe	-2411
(5	-2412
1+	-2413
42	-2414
43	-2415
4]	-2416
7.	-2417
70	-2418
9.	-2419
▁>	-2420
(2,	-2421
-10	-2422
-22	-2423
/06	-2424
/20	-2425
0.8	-2426
196	-2427
75)	-2428
8),	-2429
bec	-2430
smo	-2431
sor	-2432
tra	-2433
▁am	-2434
arti	-2435
hold	-2436
inci	-2437
ique	-2438
ised	-2439
none	-2440
nots	-2441
ofth	-2442
peci	-2443
shap	-2444
thas	-2445
tode	-2446
▁fam	-2447
/2014	-2448
Table	-2449
alone	-2450
ecess	-2451
ivers	-2452
offit	-2453
weare	-2454
while	-2455
▁0.18	-2456
▁That	-2457
▁hump	-2458
▁idea	-2459
▁list	-2460
-10-22	-2461
justed	-2462
mustbe	-2463
needto	-2464
object	-2465
phrase	-2466
▁known	-2467
▁often	-2468
▁plots	-2469
▁short	-2470
▁stand	-2471
▁under	-2472
Poisson	-2473
airhair	-2474
endency	-2475
equalto	-2476
process	-2477
reshold	-2478
survreg	-2479
through	-2480
umbered	-2481
variety	-2482
▁attrib	-2483
▁design	-2484
▁explan	-2485
▁larger	-2486
▁modulo	-2487
▁predic	-2488
▁reject	-2489
▁single	-2490
/06/2014	-2491
blueeyes	-2492
ecessary	-2493
ofthetwo	-2494
positive	-2495
valuated	-2496
▁extract	-2497
▁squared	-2498
normality	-2499
pectively	-2500
pretation	-2501
asipoisson	-2502
becausethe	-2503
inthemodel	-2504
percentcon	-2505
valueofthe	-2506
▁predictor	-2507
thesumofthe	-2508
valuesofthe	-2509
▁containing	-2510
▁population	-2511
▁subscripts	-2512
interactions	-2513
implification	-2514
teststatistic	-2515
▁unreliability	-2516
){	-2517
/9	-2518
07	-2519
53	-2520
90	-2521
93	-2522
As	-2523
DF	-2524
RO	-2525
na	-2526
pa	-2527
(4,	-2528
-16	-2529
.92	-2530
=18	-2531
ins	-2532
isa	-2533
lap	-2534
pos	-2535
udy	-2536
▁62	-2537
▁9.	-2538
▁<2	-2539
▁av	-2540
▁pe	-2541
(4.5	-2542
OSIX	-2543
Rain	-2544
ages	-2545
been	-2546
happ	-2547
havi	-2548
ider	-2549
isin	-2550
lied	-2551
ower	-2552
take	-2553
uses	-2554
weha	-2555
▁0.3	-2556
▁0.4	-2557
▁All	-2558
▁SSR	-2559
▁box	-2560
▁dis	-2561
▁ear	-2562
▁lab	-2563
▁rep	-2564
ality	-2565
ammal	-2566
aring	-2567
entst	-2568
gener	-2569
teger	-2570
think	-2571
▁Itis	-2572
▁[1]4	-2573
▁book	-2574
▁devi	-2575
▁diet	-2576
▁easy	-2577
▁hair	-2578
▁repe	-2579
-16***	-2580
attern	-2581
counts	-2582
happen	-2583
istrue	-2584
larger	-2585
powers	-2586
▁Resid	-2587
▁[1]12	-2588
▁begin	-2589
▁order	-2590
▁sizes	-2591
another	-2592
forthis	-2593
haviour	-2594
mediate	-2595
minimal	-2596
ucumber	-2597
udentst	-2598
▁either	-2599
▁output	-2600
▁paired	-2601
changein	-2602
fraction	-2603
labelled	-2604
morethan	-2605
traction	-2606
▁Finally	-2607
▁central	-2608
▁default	-2609
histogram	-2610
valuesofy	-2611
▁approach	-2612
▁contains	-2613
▁selected	-2614
oftheslope	-2615
parametric	-2616
▁predicted	-2617
▁structure	-2618
complicated	-2619
edifference	-2620
exponential	-2621
▁components	-2622
▁expression	-2623
▁likelihood	-2624
tounderstand	-2625
▁information	-2626
▁understanding	-2627
=1	-2628
LS	-2629
Me	-2630
ef	-2631
.16	-2632
.58	-2633
36.	-2634
=2)	-2635
NaN	-2636
box	-2637
des	-2638
eds	-2639
hor	-2640
ste	-2641
tif	-2642
tig	-2643
▁Ch	-2644
▁ph	-2645
Test	-2646
Tree	-2647
aset	-2648
ccur	-2649
echn	-2650
else	-2651
gray	-2652
isan	-2653
king	-2654
orus	-2655
osph	-2656
poll	-2657
prov	-2658
ross	-2659
sele	-2660
vent	-2661
vide	-2662
▁1.2	-2663
▁cov	-2664
▁inf	-2665
▁low	-2666
)/2)]	-2667
Sothe	-2668
assum	-2669
being	-2670
canbe	-2671
comes	-2672
ision	-2673
large	-2674
often	-2675
power	-2676
thatR	-2677
third	-2678
water	-2679
▁eyes	-2680
▁hist	-2681
▁obvi	-2682
▁summ	-2683
(0.975	-2684
Second	-2685
always	-2686
artile	-2687
comple	-2688
especi	-2689
expect	-2690
isused	-2691
return	-2692
tapply	-2693
vestig	-2694
▁based	-2695
▁false	-2696
▁third	-2697
(0.975,	-2698
ailable	-2699
implest	-2700
inciple	-2701
modelis	-2702
thesize	-2703
weshall	-2704
youwill	-2705
▁growth	-2706
▁multip	-2707
▁proper	-2708
aturated	-2709
ingarden	-2710
ishighly	-2711
osphorus	-2712
wewantto	-2713
▁biomass	-2714
▁compare	-2715
▁defined	-2716
egression	-2717
residuals	-2718
thevector	-2719
▁Multiple	-2720
▁produces	-2721
especially	-2722
particular	-2723
▁specified	-2724
germination	-2725
tocalculate	-2726
▁individual	-2727
▁replicates	-2728
▁assumptions	-2729
▁distributed	-2730
thequickbrown	-2731
theprobability	-2732
2*	-2733
5]	-2734
Al	-2735
LL	-2736
],	-2737
cr	-2738
fe	-2739
lt	-2740
pH	-2741
pd	-2742
ym	-2743
yx	-2744
))/	-2745
,17	-2746
138	-2747
145	-2748
386	-2749
6.2	-2750
=1.	-2751
How	-2752
OUN	-2753
Wet	-2754
]),	-2755
anc	-2756
arm	-2757
ben	-2758
cut	-2759
dow	-2760
gon	-2761
iar	-2762
ics	-2763
ont	-2764
rad	-2765
rig	-2766
son	-2767
sti	-2768
wen	-2769
xim	-2770
▁(2	-2771
▁50	-2772
▁56	-2773
▁Ad	-2774
▁im	-2775
▁mo	-2776
",12	-2777
("20	-2778
0685	-2779
3444	-2780
9)),	-2781
Here	-2782
OUNT	-2783
Type	-2784
andy	-2785
arri	-2786
ilar	-2787
loop	-2788
oure	-2789
sfor	-2790
stre	-2791
uper	-2792
▁0.2	-2793
▁0.9	-2794
▁100	-2795
▁198	-2796
▁2.4	-2797
▁2.8	-2798
▁One	-2799
▁Row	-2800
,170,	-2801
ANOVA	-2802
TypeI	-2803
Wecan	-2804
cores	-2805
eries	-2806
fully	-2807
iliar	-2808
isker	-2809
jects	-2810
lygon	-2811
maybe	-2812
occup	-2813
ouble	-2814
tions	-2815
trick	-2816
whenx	-2817
xaxis	-2818
▁0.24	-2819
▁Dark	-2820
▁Some	-2821
▁[1]2	-2822
▁plus	-2823
▁supp	-2824
OSIXlt	-2825
Vector	-2826
aneven	-2827
appear	-2828
asiest	-2829
imilar	-2830
impler	-2831
indthe	-2832
isvery	-2833
mammal	-2834
quired	-2835
shaped	-2836
terisk	-2837
weknow	-2838
▁COUNT	-2839
▁apply	-2840
▁being	-2841
▁dates	-2842
▁sides	-2843
▁tests	-2844
Grazing	-2845
Weshall	-2846
against	-2847
compute	-2848
continu	-2849
defined	-2850
doesnot	-2851
gardens	-2852
iffiffi	-2853
integer	-2854
justedR	-2855
xpected	-2856
▁Column	-2857
▁legend	-2858
▁people	-2859
▁sorted	-2860
▁though	-2861
",129)),	-2862
18-10-22	-2863
Thefirst	-2864
atistics	-2865
cucumber	-2866
equation	-2867
▁another	-2868
▁barplot	-2869
▁clearly	-2870
▁complex	-2871
▁logical	-2872
▁minimum	-2873
▁product	-2874
▁replace	-2875
▁session	-2876
▁sexmale	-2877
Orobanche	-2878
ofthedata	-2879
quantiles	-2880
thisisthe	-2881
▁Darkhair	-2882
▁Fairhair	-2883
▁describe	-2884
▁kurtosis	-2885
▁multiple	-2886
▁quantity	-2887
expression	-2888
population	-2889
▁AdjustedR	-2890
▁increases	-2891
▁transform	-2892
▁expectation	-2893
▁scatterplot	-2894
missingvalues	-2895
standarderrors	-2896
ofthedifferences	-2897
2^	-2898
8,	-2899
83	-2900
=-	-2901
LE	-2902
Re	-2903
]"	-2904
qt	-2905
▁Y	-2906
(1:	-2907
)))	-2908
.15	-2909
1).	-2910
1,]	-2911
114	-2912
2,]	-2913
7.8	-2914
=12	-2915
Mic	-2916
bab	-2917
bre	-2918
cru	-2919
day	-2920
elJ	-2921
ism	-2922
max	-2923
oub	-2924
she	-2925
sse	-2926
sub	-2927
tru	-2928
ule	-2929
ynt	-2930
▁21	-2931
▁Le	-2932
▁fe	-2933
▁qt	-2934
.1).	-2935
3112	-2936
AnIn	-2937
Wind	-2938
back	-2939
care	-2940
ches	-2941
crub	-2942
hard	-2943
iang	-2944
note	-2945
orig	-2946
radi	-2947
redu	-2948
▁3.8	-2949
▁ass	-2950
▁ext	-2951
▁red	-2952
0,10,	-2953
0.01)	-2954
First	-2955
Micha	-2956
babil	-2957
cepts	-2958
cipro	-2959
ences	-2960
iding	-2961
igure	-2962
invol	-2963
ittle	-2964
known	-2965
loyed	-2966
males	-2967
onent	-2968
ottom	-2969
panel	-2970
range	-2971
right	-2972
sheet	-2973
split	-2974
tilog	-2975
tobes	-2976
uring	-2977
▁-0.0	-2978
▁-0.5	-2979
▁From	-2980
▁With	-2981
▁[,1]	-2982
▁[1,]	-2983
▁[2,]	-2984
▁back	-2985
▁call	-2986
▁dele	-2987
▁lead	-2988
▁name	-2989
▁rows	-2990
▁sums	-2991
▁uses	-2992
▁wind	-2993
Fratio	-2994
UsingR	-2995
Wewant	-2996
Winter	-2997
binary	-2998
cluded	-2999
iszero	-3000
kindof	-3001
places	-3002
points	-3003
simony	-3004
sponse	-3005
string	-3006
usethe	-3007
▁Scrub	-3008
▁drawn	-3009
▁makes	-3010
▁numer	-3011
▁plant	-3012
▁score	-3013
▁super	-3014
▁worth	-3015
▁write	-3016
Edition	-3017
Suppose	-3018
adition	-3019
already	-3020
default	-3021
erience	-3022
eriment	-3023
however	-3024
ivalent	-3025
overall	-3026
summary	-3027
▁choice	-3028
▁differ	-3029
▁tannin	-3030
MichaelJ	-3031
argument	-3032
brackets	-3033
contains	-3034
increase	-3035
interest	-3036
lowering	-3037
▁Another	-3038
▁antilog	-3039
▁certain	-3040
▁overall	-3041
Studentst	-3042
dividedby	-3043
meansthat	-3044
mediately	-3045
monstrate	-3046
obtaining	-3047
oneormore	-3048
predicted	-3049
readsheet	-3050
thenormal	-3051
thesquare	-3052
youcansee	-3053
▁plotting	-3054
▁practice	-3055
▁products	-3056
adifferent	-3057
assumption	-3058
babilities	-3059
continuous	-3060
supplement	-3061
thesamples	-3062
▁MultipleR	-3063
▁arguments	-3064
▁influence	-3065
▁successes	-3066
alternative	-3067
appropriate	-3068
▁Statistics	-3069
▁conditions	-3070
▁definition	-3071
andomization	-3072
▁contingency	-3073
SecondEdition	-3074
bychancealone	-3075
AnIntroduction	-3076
transformation	-3077
)-	-3078
)?	-3079
.3	-3080
/5	-3081
62	-3082
8)	-3083
8.	-3084
:6	-3085
==	-3086
SE	-3087
aw	-3088
ub	-3089
▁{	-3090
-09	-3091
-12	-3092
1.2	-3093
156	-3094
312	-3095
4<-	-3096
=1,	-3097
Are	-3098
Wed	-3099
cum	-3100
did	-3101
eti	-3102
ged	-3103
lop	-3104
set	-3105
sto	-3106
tit	-3107
und	-3108
zon	-3109
0.25	-3110
0.95	-3111
0:05	-3112
1112	-3113
2233	-3114
=16,	-3115
With	-3116
amma	-3117
asin	-3118
asto	-3119
clus	-3120
diff	-3121
eget	-3122
fall	-3123
hump	-3124
ined	-3125
lows	-3126
mand	-3127
move	-3128
pect	-3129
rary	-3130
rent	-3131
such	-3132
tely	-3133
tili	-3134
todo	-3135
utes	-3136
ying	-3137
ymme	-3138
▁146	-3139
▁244	-3140
▁App	-3141
▁due	-3142
Field	-3143
bserv	-3144
curve	-3145
great	-3146
irrig	-3147
least	-3148
looks	-3149
ounds	-3150
stimp	-3151
takes	-3152
units	-3153
▁Test	-3154
▁care	-3155
▁happ	-3156
▁made	-3157
▁none	-3158
▁side	-3159
▁stop	-3160
▁turn	-3161
abuilt	-3162
ashere	-3163
butthe	-3164
higher	-3165
notbes	-3166
ofeach	-3167
ollows	-3168
regime	-3169
▁0.100	-3170
▁gives	-3171
▁going	-3172
▁leave	-3173
▁pnorm	-3174
Vectors	-3175
basedon	-3176
clusion	-3177
ctedsum	-3178
erature	-3179
etition	-3180
inwhich	-3181
ofthumb	-3182
pollute	-3183
thatare	-3184
theyare	-3185
whisker	-3186
▁accept	-3187
▁amount	-3188
▁define	-3189
▁depend	-3190
▁detail	-3191
▁family	-3192
▁simply	-3193
11122233	-3194
Deviance	-3195
comparis	-3196
familiar	-3197
ithmetic	-3198
residual	-3199
urprised	-3200
▁Because	-3201
▁[1]0.00	-3202
▁gardenB	-3203
▁looking	-3204
▁working	-3205
Whatabout	-3206
estandard	-3207
predictor	-3208
▁conclude	-3209
▁defining	-3210
▁properly	-3211
betweenthe	-3212
containing	-3213
definition	-3214
increasing	-3215
ofthemodel	-3216
▁histogram	-3217
▁saturated	-3218
▁summation	-3219
andexpected	-3220
information	-3221
ternatively	-3222
▁correction	-3223
factorlevels	-3224
fittedvalues	-3225
productivity	-3226
respectively	-3227
thevariances	-3228
▁[1]1.108847	-3229
▁complicated	-3230
▁experiments	-3231
▁generalized	-3232
▁unexplained	-3233
▁intermediate	-3234
▁significance	-3235
oftheresiduals	-3236
"]	-3237
/2	-3238
0]	-3239
84	-3240
GL	-3241
pf	-3242
▁)	-3243
▁,	-3244
(0:	-3245
(15	-3246
)/2	-3247
,1,	-3248
.82	-3249
0.2	-3250
122	-3251
19,	-3252
388	-3253
=0,	-3254
=="	-3255
Res	-3256
Tod	-3257
Two	-3258
^2,	-3259
als	-3260
bit	-3261
eat	-3262
let	-3263
lty	-3264
mid	-3265
mor	-3266
new	-3267
nxy	-3268
ths	-3269
▁2^	-3270
▁30	-3271
▁32	-3272
▁51	-3273
▁6.	-3274
▁65	-3275
▁At	-3276
▁Ex	-3277
▁Un	-3278
▁Xk	-3279
▁np	-3280
▁qf	-3281
""""	-3282
(0,3	-3283
0.1)	-3284
10),	-3285
4545	-3286
Read	-3287
Root	-3288
SSXY	-3289
That	-3290
arch	-3291
astr	-3292
body	-3293
ceed	-3294
ctly	-3295
ense	-3296
fort	-3297
hoot	-3298
hort	-3299
imes	-3300
keep	-3301
long	-3302
make	-3303
need	-3304
rows	-3305
sinR	-3306
sues	-3307
tout	-3308
uess	-3309
wind	-3310
word	-3311
ylim	-3312
▁4.0	-3313
▁Box	-3314
▁Can	-3315
▁abs	-3316
▁few	-3317
▁let	-3318
▁rel	-3319
▁why	-3320
Ifyou	-3321
along	-3322
atial	-3323
avery	-3324
cimal	-3325
donot	-3326
edata	-3327
ently	-3328
ffiff	-3329
gress	-3330
iased	-3331
istof	-3332
learn	-3333
makes	-3334
ordin	-3335
slope	-3336
study	-3337
tosee	-3338
young	-3339
▁-3.0	-3340
▁1987	-3341
▁20.0	-3342
▁Once	-3343
▁Root	-3344
▁[1]0	-3345
▁also	-3346
▁dose	-3347
▁fill	-3348
▁goes	-3349
▁hard	-3350
▁help	-3351
▁lear	-3352
▁logs	-3353
▁tail	-3354
▁ways	-3355
068528	-3356
Height	-3357
Linear	-3358
Summer	-3359
agiven	-3360
arises	-3361
atrixx	-3362
avalue	-3363
detail	-3364
formal	-3365
highly	-3366
lookat	-3367
output	-3368
plants	-3369
quence	-3370
solute	-3371
square	-3372
theuse	-3373
weneed	-3374
within	-3375
▁10000	-3376
▁analy	-3377
▁built	-3378
▁final	-3379
▁ofthe	-3380
▁power	-3381
▁scale	-3382
▁since	-3383
▁units	-3384
POSIXlt	-3385
Reading	-3386
bscript	-3387
context	-3388
correct	-3389
ensible	-3390
heights	-3391
kerTRUE	-3392
logical	-3393
mammals	-3394
oubling	-3395
produce	-3396
results	-3397
tention	-3398
vantage	-3399
whenthe	-3400
▁1.3112	-3401
▁244.92	-3402
▁Thisis	-3403
▁abline	-3404
▁course	-3405
▁degree	-3406
▁having	-3407
▁issues	-3408
▁method	-3409
▁option	-3410
,170,8),	-3411
^2,0,10,	-3412
ageneral	-3413
ageyoung	-3414
anyofthe	-3415
ciprocal	-3416
ensities	-3417
frameorm	-3418
instance	-3419
logistic	-3420
ouneedto	-3421
▁Further	-3422
▁Perhaps	-3423
▁divided	-3424
▁extreme	-3425
▁rounded	-3426
▁spatial	-3427
▁symbols	-3428
▁vectors	-3429
Functions	-3430
Thisisthe	-3431
Whatisthe	-3432
aditional	-3433
anumberof	-3434
forcalcul	-3435
▁Variance	-3436
▁absolute	-3437
▁brackets	-3438
▁interest	-3439
▁measured	-3440
▁measures	-3441
▁nitrogen	-3442
▁normally	-3443
▁outliers	-3444
▁together	-3445
formulafor	-3446
ourexample	-3447
tocarryout	-3448
weightover	-3449
▁Youcansee	-3450
▁dimension	-3451
▁essential	-3452
▁graphical	-3453
▁obviously	-3454
Probability	-3455
andblueeyes	-3456
fromthedata	-3457
hootpruning	-3458
lementsuper	-3459
lengthofthe	-3460
measurement	-3461
rootpruning	-3462
theobserved	-3463
torepresent	-3464
▁characters	-3465
▁smokerTRUE	-3466
("2018-10-22	-3467
variablesare	-3468
greeoffreedom	-3469
frameormatrixx	-3470
thequickbrownf	-3471
▁FurtherReading	-3472
▁simplification	-3473
▁rffiffiffiffiff	-3474
%.	-3475
)*	-3476
3:	-3477
60	-3478
87	-3479
91	-3480
>|	-3481
OR	-3482
ny	-3483
ye	-3484
▁.	-3485
)^2	-3486
.38	-3487
102	-3488
12,	-3489
18)	-3490
2),	-3491
3.3	-3492
3.8	-3493
75,	-3494
:14	-3495
Occ	-3496
POR	-3497
SSA	-3498
chi	-3499
cox	-3500
cus	-3501
dis	-3502
ene	-3503
fir	-3504
iod	-3505
lse	-3506
ora	-3507
▁34	-3508
▁47	-3509
▁88	-3510
▁99	-3511
▁gl	-3512
▁he	-3513
▁vs	-3514
(5.7	-3515
2.94	-3516
2222	-3517
3906	-3518
[,2]	-3519
acon	-3520
anda	-3521
aswe	-3522
aves	-3523
chan	-3524
erat	-3525
erms	-3526
help	-3527
icul	-3528
igns	-3529
lack	-3530
mpto	-3531
name	-3532
ours	-3533
ozon	-3534
rand	-3535
rely	-3536
repe	-3537
self	-3538
trac	-3539
uced	-3540
usto	-3541
yare	-3542
▁(>|	-3543
▁1.0	-3544
▁200	-3545
▁3.5	-3546
▁Inf	-3547
▁Log	-3548
▁Our	-3549
▁PRO	-3550
▁SSC	-3551
▁end	-3552
▁jud	-3553
▁mal	-3554
▁put	-3555
▁sci	-3556
(0.95	-3557
Again	-3558
Input	-3559
Model	-3560
Weuse	-3561
ancel	-3562
anodd	-3563
artby	-3564
asure	-3565
coxon	-3566
doing	-3567
inted	-3568
oring	-3569
othis	-3570
sowew	-3571
start	-3572
thata	-3573
verag	-3574
veral	-3575
wehad	-3576
yntax	-3577
▁Thec	-3578
▁[1]9	-3579
▁away	-3580
▁been	-3581
▁else	-3582
▁lots	-3583
▁marg	-3584
▁note	-3585
arting	-3586
atedby	-3587
colour	-3588
determ	-3589
imizes	-3590
iseasy	-3591
lected	-3592
logits	-3593
oftheF	-3594
positi	-3595
second	-3596
sisnot	-3597
ssibly	-3598
umbers	-3599
▁-0.00	-3600
▁Terms	-3601
▁fixed	-3602
▁looks	-3603
▁mixed	-3604
▁occur	-3605
▁takes	-3606
▁yield	-3607
PORTION	-3608
areason	-3609
aseries	-3610
beginby	-3611
cellent	-3612
clearly	-3613
earsons	-3614
ilcoxon	-3615
induced	-3616
lineari	-3617
nothing	-3618
ootstra	-3619
thatour	-3620
thebest	-3621
timates	-3622
wecould	-3623
working	-3624
▁Levels	-3625
▁across	-3626
▁appear	-3627
▁chance	-3628
▁common	-3629
▁strong	-3630
▁taking	-3631
allofthe	-3632
constant	-3633
ifthetwo	-3634
negative	-3635
ofvalues	-3636
operator	-3637
outliers	-3638
thatthis	-3639
theother	-3640
therthan	-3641
thesmall	-3642
underthe	-3643
▁bracket	-3644
▁equally	-3645
▁results	-3646
▁smaller	-3647
▁written	-3648
CountData	-3649
chanistic	-3650
fluential	-3651
geometric	-3652
something	-3653
youshould	-3654
▁Contrast	-3655
▁[,1][,2]	-3656
▁additive	-3657
▁elements	-3658
▁increase	-3659
▁operator	-3660
▁separate	-3661
edifferent	-3662
iddlevalue	-3663
irrigation	-3664
▁Orobanche	-3665
▁certainty	-3666
▁frequency	-3667
thatthereis	-3668
▁Noticethat	-3669
▁PROPORTION	-3670
▁completely	-3671
asignificant	-3672
measurements	-3673
quasipoisson	-3674
standarddevi	-3675
errorvariance	-3676
sisnotequalto	-3677
▁correlations	-3678
▁explanations	-3679
%,	-3680
(0	-3681
,?	-3682
6]	-3683
99	-3684
:1	-3685
:7	-3686
=5	-3687
Co	-3688
Pe	-3689
qf	-3690
▁$	-3691
(.9	-3692
+1+	-3693
-05	-3694
.5%	-3695
.94	-3696
105	-3697
134	-3698
19]	-3699
2.7	-3700
344	-3701
619	-3702
ESP	-3703
Exp	-3704
aby	-3705
ane	-3706
dim	-3707
ges	-3708
led	-3709
lik	-3710
nom	-3711
oft	-3712
oul	-3713
ows	-3714
qui	-3715
sec	-3716
ser	-3717
toa	-3718
ton	-3719
too	-3720
why	-3721
▁23	-3722
▁26	-3723
▁33	-3724
▁35	-3725
▁55	-3726
▁Sq	-3727
▁[[	-3728
▁ce	-3729
▁sd	-3730
))^2	-3731
1.75	-3732
1.96	-3733
1366	-3734
15),	-3735
5556	-3736
9271	-3737
ONSE	-3738
airs	-3739
also	-3740
andc	-3741
asis	-3742
book	-3743
code	-3744
dexp	-3745
ists	-3746
itch	-3747
itly	-3748
itud	-3749
omit	-3750
once	-3751
orms	-3752
orse	-3753
rate	-3754
ruit	-3755
show	-3756
skew	-3757
toin	-3758
tsof	-3759
varW	-3760
vere	-3761
▁167	-3762
▁2.0	-3763
▁4.5	-3764
▁5.0	-3765
▁95%	-3766
▁die	-3767
▁lib	-3768
▁pol	-3769
▁sim	-3770
ablen	-3771
ading	-3772
after	-3773
eadow	-3774
enter	-3775
ested	-3776
month	-3777
osing	-3778
pnorm	-3779
selec	-3780
trial	-3781
udies	-3782
wheat	-3783
witha	-3784
write	-3785
zeros	-3786
▁0.82	-3787
▁Each	-3788
▁[1]-	-3789
▁code	-3790
▁decl	-3791
▁give	-3792
▁kind	-3793
▁odds	-3794
▁orth	-3795
▁prov	-3796
10000)	-3797
Single	-3798
VARIAB	-3799
ablish	-3800
aining	-3801
andhal	-3802
arried	-3803
before	-3804
choice	-3805
correl	-3806
course	-3807
curved	-3808
ffects	-3809
island	-3810
istric	-3811
labels	-3812
levant	-3813
lights	-3814
multip	-3815
onical	-3816
reason	-3817
rectly	-3818
strong	-3819
summer	-3820
thefit	-3821
varies	-3822
wejust	-3823
winter	-3824
▁assum	-3825
▁close	-3826
▁exact	-3827
▁light	-3828
▁place	-3829
▁shown	-3830
▁until	-3831
Biomass	-3832
Butwhat	-3833
ESPONSE	-3834
Perhaps	-3835
appears	-3836
asingle	-3837
ational	-3838
atively	-3839
convert	-3840
forthes	-3841
givenby	-3842
knowhow	-3843
mightbe	-3844
outcome	-3845
problem	-3846
product	-3847
seethat	-3848
steadof	-3849
testing	-3850
tocheck	-3851
vingthe	-3852
whichis	-3853
▁0.9271	-3854
▁[1]0.0	-3855
▁binary	-3856
▁figure	-3857
▁labels	-3858
▁nature	-3859
▁object	-3860
▁saying	-3861
▁thetwo	-3862
▁tvalue	-3863
Thetrick	-3864
Weneedto	-3865
fittedto	-3866
itudinal	-3867
nitrogen	-3868
numbered	-3869
occupied	-3870
students	-3871
thegraph	-3872
theuseof	-3873
twoofthe	-3874
weshould	-3875
yourdata	-3876
ypically	-3877
▁appears	-3878
▁ceiling	-3879
▁columns	-3880
▁distric	-3881
▁further	-3882
▁integer	-3883
▁library	-3884
▁outcome	-3885
▁pattern	-3886
▁present	-3887
▁produce	-3888
▁studies	-3889
attention	-3890
comparing	-3891
egetation	-3892
establish	-3893
estimated	-3894
generally	-3895
isdefined	-3896
thatthere	-3897
tocompare	-3898
tofindthe	-3899
uccessive	-3900
variablen	-3901
vestigate	-3902
▁Weneedto	-3903
▁asterisk	-3904
▁distance	-3905
▁evidence	-3906
▁infinity	-3907
▁instance	-3908
▁interpre	-3909
▁logistic	-3910
▁quantile	-3911
▁quartile	-3912
▁remember	-3913
Inthiscase	-3914
infunction	-3915
likelytobe	-3916
unfamiliar	-3917
▁behaviour	-3918
▁component	-3919
▁evaluated	-3920
▁explained	-3921
▁identical	-3922
▁intervals	-3923
▁necessary	-3924
▁represent	-3925
Thefunction	-3926
contingency	-3927
continuouse	-3928
correlation	-3929
independent	-3930
moreextreme	-3931
▁correlated	-3932
▁orthogonal	-3933
▁phosphorus	-3934
▁reasonable	-3935
relationship	-3936
theintercept	-3937
▁immediately	-3938
▁spreadsheet	-3939
▁temperature	-3940
thedifference	-3941
▁productivity	-3942
notbesurprised	-3943
sponsevariable	-3944
minimaladequate	-3945
thatthetwomeans	-3946
theprobabilityof	-3947
ullhypothesiswas	-3948
▁pffiffiffiffiff	-3949
▁straightforward	-3950
-2	-3951
1-	-3952
26	-3953
41	-3954
51	-3955
7,	-3956
81	-3957
UL	-3958
^3	-3959
cm	-3960
gl	-3961
si	-3962
"):	-3963
(1+	-3964
(1-	-3965
(1.	-3966
(4+	-3967
-01	-3968
1.4	-3969
10.	-3970
170	-3971
1<-	-3972
295	-3973
4.0	-3974
496	-3975
574	-3976
686	-3977
692	-3978
964	-3979
:0.	-3980
:06	-3981
:59	-3982
PLE	-3983
Std	-3984
THE	-3985
[50	-3986
alt	-3987
atr	-3988
bin	-3989
irt	-3990
isf	-3991
jud	-3992
lay	-3993
mes	-3994
mic	-3995
oid	-3996
uct	-3997
ume	-3998
xva	-3999
xvi	-4000
▁(7	-4001
▁1:	-4002
▁42	-4003
▁8.	-4004
▁96	-4005
▁ef	-4006
▁id	-4007
▁yb	-4008
(0.0	-4009
)^2/	-4010
*(1-	-4011
1.25	-4012
1111	-4013
65.2	-4014
6667	-4015
8820	-4016
Fore	-4017
Just	-4018
Mean	-4019
ULTI	-4020
bell	-4021
dead	-4022
egat	-4023
eriv	-4024
esay	-4025
find	-4026
five	-4027
hape	-4028
head	-4029
hich	-4030
isal	-4031
isno	-4032
izon	-4033
lash	-4034
last	-4035
lies	-4036
loor	-4037
lyou	-4038
ming	-4039
otes	-4040
outs	-4041
sian	-4042
stem	-4043
tour	-4044
▁(1.	-4045
▁-2*	-4046
▁119	-4047
▁147	-4048
▁2.9	-4049
▁4.2	-4050
▁4.7	-4051
▁5.1	-4052
▁And	-4053
▁Tim	-4054
▁Two	-4055
▁bad	-4056
▁cho	-4057
▁cor	-4058
▁hal	-4059
▁ins	-4060
▁rev	-4061
(0,9,	-4062
114).	-4063
36.33	-4064
47386	-4065
65.16	-4066
<0.00	-4067
=0]<-	-4068
FALSE	-4069
Means	-4070
Resid	-4071
[1:22	-4072
agood	-4073
alike	-4074
andso	-4075
asbig	-4076
asket	-4077
binom	-4078
close	-4079
ecome	-4080
enote	-4081
equal	-4082
extre	-4083
ideat	-4084
ighth	-4085
ingly	-4086
inour	-4087
lopes	-4088
ofall	-4089
ravel	-4090
razor	-4091
speed	-4092
ticul	-4093
tofit	-4094
topro	-4095
trins	-4096
whole	-4097
worth	-4098
youto	-4099
▁Blue	-4100
▁ants	-4101
▁days	-4102
▁game	-4103
▁hand	-4104
▁must	-4105
▁plac	-4106
▁plan	-4107
▁poor	-4108
▁take	-4109
▁tion	-4110
195312	-4111
Wehave	-4112
ageold	-4113
andtwo	-4114
assume	-4115
cedure	-4116
eneity	-4117
erence	-4118
fitfor	-4119
froman	-4120
ground	-4121
hallow	-4122
iculty	-4123
implic	-4124
ismuch	-4125
meanis	-4126
modela	-4127
region	-4128
smoker	-4129
thenew	-4130
though	-4131
throot	-4132
tobese	-4133
tracts	-4134
unique	-4135
volved	-4136
whatis	-4137
youare	-4138
▁Brown	-4139
▁Inour	-4140
▁Liver	-4141
▁MULTI	-4142
▁accur	-4143
▁avoid	-4144
▁found	-4145
▁gener	-4146
▁hence	-4147
▁insol	-4148
▁inthe	-4149
▁judge	-4150
▁moral	-4151
▁usual	-4152
Finally	-4153
Samples	-4154
ailures	-4155
aussian	-4156
hasbeen	-4157
horizon	-4158
houldbe	-4159
initial	-4160
istosay	-4161
kindsof	-4162
lightly	-4163
located	-4164
locator	-4165
mainder	-4166
medians	-4167
minimum	-4168
mostimp	-4169
mptotic	-4170
onwhich	-4171
ossible	-4172
perhaps	-4173
species	-4174
streams	-4175
thingto	-4176
tilizer	-4177
without	-4178
withtwo	-4179
youhave	-4180
▁0.0024	-4181
▁Arable	-4182
▁TestDf	-4183
▁assess	-4184
▁plants	-4185
▁smooth	-4186
▁stands	-4187
▁syntax	-4188
▁totals	-4189
▁zvalue	-4190
0.068528	-4191
Notethat	-4192
aboutthe	-4193
atically	-4194
evidence	-4195
failures	-4196
happened	-4197
lication	-4198
lineariz	-4199
measured	-4200
needtobe	-4201
original	-4202
ozonecon	-4203
particul	-4204
progress	-4205
▁Grazing	-4206
▁However	-4207
▁applied	-4208
▁classic	-4209
▁correct	-4210
▁current	-4211
▁details	-4212
▁easiest	-4213
▁getting	-4214
▁include	-4215
▁instead	-4216
▁nothing	-4217
▁overlay	-4218
▁polygon	-4219
▁variety	-4220
alculated	-4221
casewhere	-4222
determine	-4223
involving	-4224
parations	-4225
partofthe	-4226
pulations	-4227
standsfor	-4228
statement	-4229
successes	-4230
thefitted	-4231
themedian	-4232
therefore	-4233
toworkout	-4234
ubscripts	-4235
whatisthe	-4236
▁0.100295	-4237
▁Blueeyes	-4238
▁MULTIPLE	-4239
▁Pearsons	-4240
▁anything	-4241
▁employed	-4242
▁location	-4243
▁multiply	-4244
▁repeated	-4245
▁tendency	-4246
(0,9,0.01)	-4247
CountAphid	-4248
Forexample	-4249
cimalpoint	-4250
comparison	-4251
horizontal	-4252
orthogonal	-4253
ratherthan	-4254
rejectthen	-4255
thevalueof	-4256
tingencies	-4257
varianceis	-4258
withineach	-4259
▁Browneyes	-4260
▁Rowtotals	-4261
▁Sometimes	-4262
▁advantage	-4263
▁excellent	-4264
▁flowering	-4265
▁increased	-4266
▁insolvent	-4267
▁parsimony	-4268
▁principle	-4269
frequencyof	-4270
fromanormal	-4271
fromthesame	-4272
isanexample	-4273
linearmodel	-4274
mightwantto	-4275
ootstrapped	-4276
proportions	-4277
separatedby	-4278
thecontrast	-4279
thesmallest	-4280
weightobese	-4281
▁Arithmetic	-4282
▁TermsResid	-4283
▁absolutely	-4284
▁separately	-4285
111222333444	-4286
conventional	-4287
implestmodel	-4288
linearmodels	-4289
normalerrors	-4290
thetreatment	-4291
▁EstimateStd	-4292
▁[1]1.333333	-4293
▁description	-4294
▁mechanistic	-4295
DevianceTable	-4296
edifferenceof	-4297
estimateofthe	-4298
ofthevariance	-4299
ormoreextreme	-4300
theproportion	-4301
theregression	-4302
▁Columntotals	-4303
▁calculations	-4304
▁variancemean	-4305
forcalculating	-4306
thealternative	-4307
wayinteraction	-4308
egativebinomial	-4309
issignificantly	-4310
thedecimalpoint	-4311
iffiffiffiffiffi	-4312
▁sffiffiffiffiff	-4313
%/	-4314
)+	-4315
);	-4316
/0	-4317
1=	-4318
54	-4319
6/	-4320
97	-4321
=4	-4322
BC	-4323
Ex	-4324
[-	-4325
ek	-4326
np	-4327
oc	-4328
qq	-4329
rm	-4330
yn	-4331
▁K	-4332
▁U	-4333
"))	-4334
%/%	-4335
(3,	-4336
(7,	-4337
)).	-4338
)<-	-4339
-0.	-4340
.17	-4341
.28	-4342
103	-4343
107	-4344
119	-4345
12.	-4346
12:	-4347
150	-4348
16,	-4349
200	-4350
216	-4351
24.	-4352
342	-4353
365	-4354
4,7	-4355
477	-4356
536	-4357
6).	-4358
685	-4359
751	-4360
850	-4361
905	-4362
981	-4363
:6)	-4364
:7)	-4365
:8)	-4366
AAB	-4367
AIC	-4368
BCC	-4369
Con	-4370
DAM	-4371
LSD	-4372
Our	-4373
SSC	-4374
Sow	-4375
Str	-4376
dig	-4377
dpo	-4378
few	-4379
ifi	-4380
iny	-4381
lat	-4382
lip	-4383
nos	-4384
ond	-4385
oxp	-4386
pth	-4387
ral	-4388
ray	-4389
rel	-4390
ris	-4391
ses	-4392
vec	-4393
yyy	-4394
▁$:	-4395
▁(1	-4396
▁5.	-4397
▁68	-4398
▁Al	-4399
▁[7	-4400
▁ax	-4401
(40,	-4402
.939	-4403
0.07	-4404
0.14	-4405
0.19	-4406
0.97	-4407
100,	-4408
6666	-4409
==0)	-4410
ENTA	-4411
Thus	-4412
[-1]	-4413
abig	-4414
andd	-4415
andh	-4416
asif	-4417
bind	-4418
cant	-4419
chie	-4420
cide	-4421
ctob	-4422
deal	-4423
dern	-4424
diet	-4425
ells	-4426
enon	-4427
fact	-4428
gent	-4429
goes	-4430
hier	-4431
ians	-4432
idth	-4433
iece	-4434
inga	-4435
ital	-4436
lank	-4437
larg	-4438
lect	-4439
made	-4440
oled	-4441
otal	-4442
play	-4443
says	-4444
sowe	-4445
tore	-4446
uity	-4447
uned	-4448
uter	-4449
week	-4450
wers	-4451
yand	-4452
zing	-4453
▁"1:	-4454
▁"2:	-4455
▁"3:	-4456
▁0.7	-4457
▁3.4	-4458
▁FUN	-4459
▁act	-4460
▁cap	-4461
▁gre	-4462
▁mid	-4463
▁seq	-4464
▁top	-4465
(7,4)	-4466
3.234	-4467
74156	-4468
94.38	-4469
Fruit	-4470
acomp	-4471
andin	-4472
anova	-4473
blems	-4474
centi	-4475
chisq	-4476
entif	-4477
every	-4478
haves	-4479
ideas	-4480
igned	-4481
inrow	-4482
insec	-4483
isSSY	-4484
isequ	-4485
ively	-4486
minus	-4487
orthe	-4488
pearm	-4489
peats	-4490
plant	-4491
rates	-4492
roved	-4493
sider	-4494
sover	-4495
tings	-4496
toats	-4497
usual	-4498
vance	-4499
wedid	-4500
whose	-4501
youre	-4502
▁(2.0	-4503
▁-3.3	-4504
▁0.75	-4505
▁10.0	-4506
▁Call	-4507
▁Soil	-4508
▁Temp	-4509
▁Worm	-4510
▁boxp	-4511
▁come	-4512
▁date	-4513
▁done	-4514
▁fair	-4515
▁prac	-4516
▁radi	-4517
▁rule	-4518
▁seed	-4519
▁word	-4520
(1,2))	-4521
(2,2))	-4522
(4,196	-4523
(40,32	-4524
AABBCC	-4525
ENTALS	-4526
Infact	-4527
accept	-4528
alsifi	-4529
anddiv	-4530
arange	-4531
arenot	-4532
aretwo	-4533
ecuted	-4534
effect	-4535
either	-4536
ensure	-4537
ercise	-4538
erious	-4539
ffiffi	-4540
finite	-4541
inated	-4542
inmean	-4543
ishers	-4544
learly	-4545
lineis	-4546
lowest	-4547
morize	-4548
onenti	-4549
paired	-4550
people	-4551
quires	-4552
really	-4553
retain	-4554
selves	-4555
simply	-4556
stanti	-4557
thanwe	-4558
theory	-4559
thesub	-4560
toknow	-4561
tothis	-4562
ustake	-4563
utable	-4564
withan	-4565
▁0.000	-4566
▁Brand	-4567
▁Slope	-4568
▁SumSq	-4569
▁These	-4570
▁Total	-4571
▁achie	-4572
▁chisq	-4573
▁death	-4574
▁effec	-4575
▁inver	-4576
▁logit	-4577
▁plaus	-4578
▁quite	-4579
▁sense	-4580
▁taken	-4581
▁while	-4582
▁width	-4583
))^2)/9	-4584
:83.234	-4585
Chapter	-4586
General	-4587
Species	-4588
Youwill	-4589
ampling	-4590
centile	-4591
degrees	-4592
echange	-4593
echniqu	-4594
edbythe	-4595
edinthe	-4596
edscale	-4597
explain	-4598
fcourse	-4599
ikewise	-4600
ingthen	-4601
insects	-4602
itshows	-4603
omitted	-4604
pvalues	-4605
scatter	-4606
stances	-4607
tergent	-4608
thatmin	-4609
thelink	-4610
themode	-4611
valuate	-4612
various	-4613
vectory	-4614
youneed	-4615
yvalues	-4616
▁0.0008	-4617
▁Calcul	-4618
▁FUNDAM	-4619
▁MeanSq	-4620
▁cannot	-4621
▁comput	-4622
▁divide	-4623
▁higher	-4624
▁island	-4625
▁little	-4626
▁modern	-4627
▁needto	-4628
▁scores	-4629
94.38536	-4630
Remember	-4631
Todothis	-4632
actually	-4633
anFratio	-4634
checking	-4635
dividing	-4636
doubling	-4637
ensoring	-4638
entially	-4639
entirely	-4640
eratures	-4641
hierarch	-4642
imilarly	-4643
industry	-4644
infinity	-4645
levelsof	-4646
muchmore	-4647
obtained	-4648
provides	-4649
requency	-4650
standthe	-4651
turnsout	-4652
vailable	-4653
willhave	-4654
▁Suppose	-4655
▁already	-4656
▁assumed	-4657
▁boxplot	-4658
▁earlier	-4659
▁factors	-4660
▁follows	-4661
▁numeric	-4662
▁percent	-4663
▁provide	-4664
▁pruning	-4665
▁quantif	-4666
▁several	-4667
▁species	-4668
▁whichis	-4669
▁windows	-4670
▁writing	-4671
astandard	-4672
dimension	-4673
formative	-4674
imalmodel	-4675
infection	-4676
isgivenby	-4677
modelling	-4678
necessary	-4679
noneofthe	-4680
plotshows	-4681
restimate	-4682
selecting	-4683
thepvalue	-4684
▁Theseare	-4685
▁applying	-4686
▁argument	-4687
▁dietoats	-4688
▁district	-4689
▁notation	-4690
▁numbered	-4691
▁randomly	-4692
▁required	-4693
▁unlikely	-4694
Covariance	-4695
Proportion	-4696
Thisiseasy	-4697
alsifiable	-4698
andhalving	-4699
catterplot	-4700
differents	-4701
experiment	-4702
ofthegraph	-4703
onthegraph	-4704
theoverall	-4705
totheright	-4706
watertable	-4707
youwillsee	-4708
▁available	-4709
▁bracketed	-4710
▁corrected	-4711
▁dietwheat	-4712
▁establish	-4713
▁extremely	-4714
▁indicates	-4715
▁measuring	-4716
▁plausible	-4717
▁practical	-4718
▁preferred	-4719
▁statement	-4720
▁substanti	-4721
Forinstance	-4722
adifference	-4723
asafunction	-4724
assumptions	-4725
competition	-4726
factorlevel	-4727
isdefinedas	-4728
orrectedsum	-4729
ozonegarden	-4730
represented	-4731
thefunction	-4732
▁Regression	-4733
▁Vegetation	-4734
▁complexity	-4735
▁dimensions	-4736
▁equivalent	-4737
▁experience	-4738
▁reciprocal	-4739
areidentical	-4740
becauseofthe	-4741
ffiffiffiffi	-4742
growthtannin	-4743
oftheproduct	-4744
thatthemodel	-4745
thefollowing	-4746
thegeometric	-4747
thesubtotals	-4748
umsofsquares	-4749
▁denominator	-4750
▁uncertainty	-4751
Alternatively	-4752
forthecontrol	-4753
probabilities	-4754
rejectingthen	-4755
unreliability	-4756
withCountData	-4757
▁Calculations	-4758
▁FUNDAMENTALS	-4759
▁Sumofsquares	-4760
estandarderror	-4761
interpretation	-4762
thescatterplot	-4763
totalvariation	-4764
truedifference	-4765
variationinthe	-4766
▁distributions	-4767
allysignificant	-4768
criticalvalueof	-4769
distributioniss	-4770
isveryimportant	-4771
numberedvectory	-4772
ofthedifference	-4773
supplementsuper	-4774
wewanttoknowthe	-4775
residualdeviance	-4776
thequickbrownfox	-4777
(3	-4778
+3	-4779
.,	-4780
2"	-4781
2(	-4782
49	-4783
86	-4784
9:	-4785
=8	-4786
CY	-4787
FR	-4788
OK	-4789
RE	-4790
SD	-4791
aj	-4792
bo	-4793
sc	-4794
yp	-4795
▁u	-4796
,1)	-4797
-07	-4798
-08	-4799
...	-4800
1))	-4801
1):	-4802
1.3	-4803
1.7	-4804
11,	-4805
132	-4806
2.4	-4807
25,	-4808
38,	-4809
6.7	-4810
612	-4811
654	-4812
737	-4813
75.	-4814
791	-4815
7<-	-4816
884	-4817
95%	-4818
:56	-4819
<5)	-4820
ALT	-4821
GLM	-4822
Ins	-4823
aph	-4824
ctu	-4825
dex	-4826
fid	-4827
gam	-4828
ife	-4829
irc	-4830
jus	-4831
lie	-4832
odu	-4833
ope	-4834
oti	-4835
tes	-4836
ues	-4837
wef	-4838
▁-7	-4839
▁1)	-4840
▁2:	-4841
▁2=	-4842
▁97	-4843
▁Re	-4844
▁af	-4845
▁ag	-4846
▁mm	-4847
▁pH	-4848
(1),	-4849
.402	-4850
.5),	-4851
0035	-4852
14.2	-4853
2=1.	-4854
3464	-4855
6138	-4856
6865	-4857
AMES	-4858
Area	-4859
COVA	-4860
ENCY	-4861
ENTR	-4862
Name	-4863
Thec	-4864
Them	-4865
When	-4866
Wood	-4867
ajor	-4868
alog	-4869
ando	-4870
asas	-4871
cope	-4872
deed	-4873
eabx	-4874
fect	-4875
firm	-4876
fold	-4877
gest	-4878
greg	-4879
grey	-4880
half	-4881
hasa	-4882
ices	-4883
imag	-4884
lapp	-4885
mist	-4886
notf	-4887
nrow	-4888
ofan	-4889
sina	-4890
till	-4891
upto	-4892
utom	-4893
vary	-4894
yabx	-4895
▁105	-4896
▁117	-4897
▁185	-4898
▁222	-4899
▁26.	-4900
▁295	-4901
▁3.9	-4902
▁5.2	-4903
▁Pre	-4904
▁Sow	-4905
▁aov	-4906
▁cod	-4907
▁dro	-4908
▁fin	-4909
▁ger	-4910
▁ign	-4911
▁max	-4912
▁npq	-4913
▁own	-4914
▁pic	-4915
▁run	-4916
▁saw	-4917
▁sse	-4918
▁too	-4919
▁tre	-4920
(5.7)	-4921
:1234	-4922
Cases	-4923
[1:3]	-4924
alues	-4925
andid	-4926
andno	-4927
arket	-4928
asier	-4929
atest	-4930
break	-4931
buton	-4932
cover	-4933
dered	-4934
entto	-4935
entwo	-4936
ffect	-4937
havea	-4938
ifthe	-4939
itwas	-4940
izing	-4941
later	-4942
lling	-4943
odulo	-4944
ource	-4945
stage	-4946
terog	-4947
thath	-4948
thele	-4949
todet	-4950
vedis	-4951
wards	-4952
weren	-4953
yaxis	-4954
ystem	-4955
▁-3.2	-4956
▁0.65	-4957
▁Tree	-4958
▁body	-4959
▁eabx	-4960
▁full	-4961
▁keep	-4962
▁last	-4963
▁once	-4964
▁part	-4965
▁rank	-4966
▁read	-4967
▁suff	-4968
▁text	-4969
▁thes	-4970
▁weak	-4971
▁yabx	-4972
▁year	-4973
▁ylog	-4974
-07***	-4975
ALTEND	-4976
ANCOVA	-4977
FRAMES	-4978
Occams	-4979
Things	-4980
Youcan	-4981
andage	-4982
anduse	-4983
argest	-4984
attest	-4985
cancel	-4986
cision	-4987
distin	-4988
earest	-4989
elling	-4990
entity	-4991
female	-4992
fident	-4993
formul	-4994
height	-4995
iction	-4996
igures	-4997
meanof	-4998
ompare	-4999
orough	-5000
outthe	-5001
owmany	-5002
proper	-5003
random	-5004
ressed	-5005
resses	-5006
tables	-5007
thatwe	-5008
theses	-5009
things	-5010
todraw	-5011
toeach	-5012
tolook	-5013
trical	-5014
vertic	-5015
waysof	-5016
yields	-5017
▁CENTR	-5018
▁Count	-5019
▁Gener	-5020
▁Thats	-5021
▁added	-5022
▁after	-5023
▁carry	-5024
▁floor	-5025
▁guess	-5026
▁later	-5027
▁major	-5028
▁needs	-5029
▁panel	-5030
▁throw	-5031
(0.025,	-5032
8820102	-5033
Thenext	-5034
abinary	-5035
amatrix	-5036
arenots	-5037
arithms	-5038
asbeing	-5039
asureof	-5040
atwhich	-5041
complex	-5042
enables	-5043
entence	-5044
entists	-5045
general	-5046
howmany	-5047
istouse	-5048
isually	-5049
lapping	-5050
mustben	-5051
objects	-5052
ortance	-5053
otients	-5054
ounting	-5055
outside	-5056
pection	-5057
precise	-5058
printed	-5059
realize	-5060
roughly	-5061
section	-5062
smaller	-5063
sortsof	-5064
thelast	-5065
themost	-5066
usually	-5067
wewould	-5068
withone	-5069
▁Modulo	-5070
▁basket	-5071
▁become	-5072
▁fisher	-5073
▁formal	-5074
▁happen	-5075
▁height	-5076
▁ifelse	-5077
▁recall	-5078
▁remove	-5079
▁return	-5080
▁stages	-5081
▁symbol	-5082
00195312	-5083
Letustry	-5084
butthese	-5085
compared	-5086
ffiffiff	-5087
forerror	-5088
fromthis	-5089
indicate	-5090
infected	-5091
iversity	-5092
jectthen	-5093
oneofthe	-5094
onlyfour	-5095
ordinate	-5096
peration	-5097
possibly	-5098
repeated	-5099
stimates	-5100
termined	-5101
thanthis	-5102
thatthen	-5103
theANOVA	-5104
thenumer	-5105
thereisa	-5106
toobtain	-5107
unlikely	-5108
usingthe	-5109
veraging	-5110
werenots	-5111
▁Inorder	-5112
▁Summary	-5113
▁command	-5114
▁explain	-5115
▁options	-5116
▁perhaps	-5117
▁picture	-5118
▁precise	-5119
▁removed	-5120
▁simpler	-5121
▁smoking	-5122
▁testing	-5123
▁unknown	-5124
▁usually	-5125
Frequency	-5126
Thereares	-5127
Thisisnot	-5128
afunction	-5129
alculator	-5130
avariable	-5131
behaviour	-5132
canbeused	-5133
changeinx	-5134
changeiny	-5135
ertilizer	-5136
etweentwo	-5137
insteadof	-5138
lightgrey	-5139
linearity	-5140
movingthe	-5141
ofaSingle	-5142
percentag	-5143
principle	-5144
quadratic	-5145
structure	-5146
thesample	-5147
thisstage	-5148
withtheir	-5149
wouldhave	-5150
youneedto	-5151
ypotheses	-5152
▁Notethat	-5153
▁Thefirst	-5154
▁VARIANCE	-5155
▁Wilcoxon	-5156
▁approxim	-5157
▁dividing	-5158
▁indicate	-5159
▁powerful	-5160
▁removing	-5161
▁shortcut	-5162
▁solution	-5163
▁subtract	-5164
▁temporal	-5165
ALTENDENCY	-5166
Regression	-5167
background	-5168
correction	-5169
correlated	-5170
functionis	-5171
implicitly	-5172
likelihood	-5173
ofthethree	-5174
ofvariance	-5175
onthexaxis	-5176
ontheyaxis	-5177
otherthree	-5178
percentage	-5179
separately	-5180
thefigures	-5181
wewanttobe	-5182
ymmetrical	-5183
▁deviation	-5184
▁incidence	-5185
▁infection	-5186
▁themedian	-5187
▁threshold	-5188
Occamsrazor	-5189
arepositive	-5190
ofeachofthe	-5191
terogeneity	-5192
thatdoesnot	-5193
thenthereis	-5194
withthesame	-5195
▁DATAFRAMES	-5196
▁[1]1.10885	-5197
▁complement	-5198
▁convention	-5199
▁deviations	-5200
▁importance	-5201
▁increasing	-5202
▁reasonably	-5203
▁specifying	-5204
(0.025,0.975	-5205
Distribution	-5206
Inputmustben	-5207
fittedtodata	-5208
grazedplants	-5209
isnotequalto	-5210
ofproportion	-5211
resseswithin	-5212
thenewregime	-5213
thenumerator	-5214
▁[1]1.103464	-5215
▁multiplying	-5216
▁predictions	-5217
▁subtraction	-5218
▁traditional	-5219
Thismeansthat	-5220
distributions	-5221
variablesthat	-5222
▁experimental	-5223
▁particularly	-5224
▁quasipoisson	-5225
aresignificant	-5226
atingthemedian	-5227
isthechangeiny	-5228
theappropriate	-5229
thelengthofthe	-5230
linearpredictor	-5231
ofaSingleSample	-5232
quantilesoftheF	-5233
▁interpretation	-5234
constantvariance	-5235
edegreeoffreedom	-5236
▁CENTRALTENDENCY	-5237
▁[1]111222333444	-5238
(%	-5239
*(	-5240
+"	-5241
+(	-5242
0&	-5243
1*	-5244
3/	-5245
4/	-5246
5=	-5247
69	-5248
At	-5249
By	-5250
TS	-5251
]+	-5252
]-	-5253
cy	-5254
ev	-5255
fi	-5256
gn	-5257
ho	-5258
hr	-5259
ia	-5260
km	-5261
sp	-5262
vc	-5263
yE	-5264
"]-	-5265
%%(	-5266
(1)	-5267
(1/	-5268
(22	-5269
(5,	-5270
(6/	-5271
)),	-5272
)=-	-5273
+0.	-5274
+12	-5275
-11	-5276
.75	-5277
008	-5278
09:	-5279
1),	-5280
1.0	-5281
109	-5282
12(	-5283
14)	-5284
14,	-5285
180	-5286
20)	-5287
20]	-5288
256	-5289
278	-5290
3).	-5291
3,9	-5292
3.0	-5293
333	-5294
455	-5295
5).	-5296
5+"	-5297
510	-5298
6,9	-5299
6.8	-5300
665	-5301
680	-5302
6<-	-5303
769	-5304
80.	-5305
990	-5306
:1)	-5307
<-(	-5308
=20	-5309
>12	-5310
Des	-5311
Dev	-5312
Tog	-5313
ULL	-5314
cer	-5315
chr	-5316
dot	-5317
fav	-5318
inm	-5319
ios	-5320
itu	-5321
job	-5322
kur	-5323
lef	-5324
mis	-5325
mpt	-5326
ols	-5327
orz	-5328
run	-5329
sby	-5330
sci	-5331
thy	-5332
uri	-5333
▁**	-5334
▁7.	-5335
▁75	-5336
▁80	-5337
▁90	-5338
▁He	-5339
▁Or	-5340
▁Po	-5341
▁Up	-5342
▁db	-5343
▁df	-5344
▁kx	-5345
▁lo	-5346
▁qq	-5347
▁rm	-5348
▁xE	-5349
%%2=	-5350
(22)	-5351
(7.0	-5352
)%%2	-5353
))/3	-5354
)/2]	-5355
.06]	-5356
.28]	-5357
.58]	-5358
.719	-5359
.859	-5360
1022	-5361
1459	-5362
15.0	-5363
190,	-5364
195=	-5365
1:3)	-5366
2,.-	-5367
2.95	-5368
3,4,	-5369
30),	-5370
3320	-5371
3][,	-5372
4,3.	-5373
4824	-5374
6856	-5375
9,9)	-5376
90.6	-5377
9504	-5378
96).	-5379
983,	-5380
:0.8	-5381
:105	-5382
<=16	-5383
<=18	-5384
="")	-5385
=0.5	-5386
=2.8	-5387
=24.	-5388
>=16	-5389
>=18	-5390
Ifwe	-5391
Some	-5392
Sums	-5393
West	-5394
[1])	-5395
[1],	-5396
[1]]	-5397
^2)-	-5398
abet	-5399
abou	-5400
aily	-5401
alph	-5402
amed	-5403
andb	-5404
anex	-5405
anin	-5406
atwo	-5407
bean	-5408
bine	-5409
bits	-5410
caus	-5411
cogn	-5412
done	-5413
duce	-5414
edit	-5415
edon	-5416
elch	-5417
enso	-5418
epvs	-5419
erel	-5420
flat	-5421
game	-5422
ging	-5423
hade	-5424
hile	-5425
ifou	-5426
inad	-5427
mess	-5428
oftw	-5429
osen	-5430
oura	-5431
ouro	-5432
outh	-5433
poor	-5434
reec	-5435
rend	-5436
rupt	-5437
sevs	-5438
thex	-5439
took	-5440
tran	-5441
varS	-5442
virt	-5443
xyxy	-5444
yorz	-5445
▁(3.	-5446
▁0.1	-5447
▁1.5	-5448
▁10,	-5449
▁108	-5450
▁129	-5451
▁160	-5452
▁223	-5453
▁245	-5454
▁257	-5455
▁278	-5456
▁366	-5457
▁39.	-5458
▁4.1	-5459
▁8.2	-5460
▁CON	-5461
▁Dev	-5462
▁InR	-5463
▁Its	-5464
▁Str	-5465
▁War	-5466
▁Wet	-5467
▁[7]	-5468
▁bin	-5469
▁eye	-5470
▁glm	-5471
▁had	-5472
▁hat	-5473
▁hol	-5474
▁ing	-5475
▁lim	-5476
▁pot	-5477
▁ref	-5478
▁wet	-5479
▁yny	-5480
(1,2,	-5481
(4+2*	-5482
(4.5,	-5483
)/10)	-5484
.5818	-5485
.9393	-5486
0.25)	-5487
0.974	-5488
09:30	-5489
1.756	-5490
11145	-5491
12:45	-5492
13663	-5493
1:216	-5494
2,4.5	-5495
2.949	-5496
3.235	-5497
6.23]	-5498
75,5)	-5499
:59")	-5500
<-4.5	-5501
=0.46	-5502
Exact	-5503
Rwill	-5504
Which	-5505
[501]	-5506
allow	-5507
althy	-5508
argon	-5509
ashow	-5510
astic	-5511
ather	-5512
aying	-5513
bably	-5514
becov	-5515
bythe	-5516
cbind	-5517
comma	-5518
csine	-5519
datac	-5520
dates	-5521
deriv	-5522
eties	-5523
final	-5524
froma	-5525
haved	-5526
hours	-5527
ideal	-5528
ircum	-5529
logic	-5530
logit	-5531
loser	-5532
mains	-5533
mater	-5534
micol	-5535
multi	-5536
negat	-5537
ofone	-5538
onits	-5539
osced	-5540
previ	-5541
promo	-5542
reduc	-5543
thate	-5544
toits	-5545
tools	-5546
ulate	-5547
volum	-5548
weask	-5549
worms	-5550
ypoor	-5551
▁(6.2	-5552
▁-1.2	-5553
▁-2.2	-5554
▁1.00	-5555
▁1.95	-5556
▁12.5	-5557
▁1680	-5558
▁2910	-5559
▁5264	-5560
▁Both	-5561
▁Comp	-5562
▁Data	-5563
▁Form	-5564
▁Lear	-5565
▁Rats	-5566
▁Skew	-5567
▁Thus	-5568
▁Writ	-5569
▁andy	-5570
▁base	-5571
▁bits	-5572
▁curv	-5573
▁dSSE	-5574
▁deal	-5575
▁file	-5576
▁gets	-5577
▁grey	-5578
▁isno	-5579
▁loop	-5580
▁male	-5581
▁nine	-5582
▁park	-5583
▁prop	-5584
▁rats	-5585
▁real	-5586
▁sign	-5587
▁soon	-5588
▁sqrt	-5589
▁tell	-5590
▁tool	-5591
▁unde	-5592
▁varS	-5593
▁vult	-5594
(0,10,	-5595
(0:10)	-5596
,1,18)	-5597
-12***	-5598
3.9393	-5599
3][,4]	-5600
4](4.5	-5601
<=160]	-5602
<=180]	-5603
>=160&	-5604
>=185]	-5605
Growth	-5606
Models	-5607
Nested	-5608
Normal	-5609
TypeII	-5610
ataset	-5611
attrib	-5612
branch	-5613
combin	-5614
ctober	-5615
curves	-5616
digits	-5617
ecking	-5618
enoted	-5619
enuity	-5620
eredin	-5621
favour	-5622
fisher	-5623
fourth	-5624
ifelse	-5625
inside	-5626
inthis	-5627
irical	-5628
ithpos	-5629
itwill	-5630
ixture	-5631
kurtic	-5632
lassic	-5633
middle	-5634
modeli	-5635
observ	-5636
oftenc	-5637
pchisq	-5638
predic	-5639
pvalue	-5640
quares	-5641
quotes	-5642
stream	-5643
tempts	-5644
thecon	-5645
thesam	-5646
theway	-5647
topped	-5648
triang	-5649
trolvs	-5650
wedraw	-5651
wetake	-5652
weusep	-5653
youuse	-5654
yvalue	-5655
▁(0.00	-5656
▁(0.14	-5657
▁0.020	-5658
▁0.024	-5659
▁0.103	-5660
▁0.196	-5661
▁16795	-5662
▁19149	-5663
▁Again	-5664
▁Apply	-5665
▁Inten	-5666
▁Inter	-5667
▁Mixed	-5668
▁Plots	-5669
▁Scale	-5670
▁Start	-5671
▁Welch	-5672
▁While	-5673
▁[[1]]	-5674
▁allow	-5675
▁alone	-5676
▁chang	-5677
▁eight	-5678
▁gamma	-5679
▁isthe	-5680
▁leads	-5681
▁learn	-5682
▁least	-5683
▁liver	-5684
▁local	-5685
▁simul	-5686
▁tempt	-5687
▁think	-5688
▁thumb	-5689
▁trick	-5690
▁words	-5691
▁works	-5692
"]))^2)	-5693
(0,10),	-5694
(0,3000	-5695
(7.06,9	-5696
3,9.28]	-5697
4,3.19]	-5698
4,7.06]	-5699
65.1667	-5700
=0.6856	-5701
Forthis	-5702
Fortran	-5703
Samplet	-5704
Themost	-5705
acility	-5706
aidtobe	-5707
aliased	-5708
alinear	-5709
ankrupt	-5710
applied	-5711
aresaid	-5712
arities	-5713
arrange	-5714
asample	-5715
asextre	-5716
astrong	-5717
atrices	-5718
bracket	-5719
command	-5720
edabout	-5721
effiffi	-5722
encoura	-5723
ensored	-5724
finding	-5725
hortcut	-5726
ication	-5727
include	-5728
indthem	-5729
iseased	-5730
iterate	-5731
itlooks	-5732
lyingon	-5733
meanofy	-5734
ofcentr	-5735
onlyone	-5736
oralive	-5737
overlap	-5738
plicate	-5739
polygon	-5740
present	-5741
provide	-5742
serious	-5743
shallow	-5744
strings	-5745
thefact	-5746
thefive	-5747
themain	-5748
therest	-5749
ulative	-5750
withinR	-5751
▁(3.19,	-5752
▁0.0674	-5753
▁39.686	-5754
▁736.33	-5755
▁Deepvs	-5756
▁Fvalue	-5757
▁Loglik	-5758
▁Meadow	-5759
▁Thekey	-5760
▁Thesum	-5761
▁[1]1.3	-5762
▁actual	-5763
▁allows	-5764
▁choose	-5765
▁chosen	-5766
▁curved	-5767
▁detach	-5768
▁effort	-5769
▁female	-5770
▁fourth	-5771
▁humped	-5772
▁impact	-5773
▁inches	-5774
▁matter	-5775
▁middle	-5776
▁phrase	-5777
▁prompt	-5778
▁regime	-5779
▁select	-5780
▁string	-5781
▁triang	-5782
▁unique	-5783
▁yellow	-5784
(40,3270	-5785
12:45:06	-5786
3.235278	-5787
:1052.95	-5788
Distance	-5789
Negative	-5790
Thisisan	-5791
Variable	-5792
[,3][,4]	-5793
alphabet	-5794
alpowers	-5795
andbrown	-5796
andhence	-5797
andisthe	-5798
approach	-5799
assigned	-5800
assuming	-5801
asticity	-5802
callthis	-5803
ceedisto	-5804
dayofthe	-5805
equality	-5806
examples	-5807
goodness	-5808
handside	-5809
ifthroot	-5810
isnotthe	-5811
leftover	-5812
material	-5813
micolons	-5814
ningmess	-5815
partures	-5816
produced	-5817
products	-5818
quartile	-5819
reducing	-5820
remember	-5821
rootsare	-5822
shouldbe	-5823
sowewant	-5824
strongly	-5825
techniqu	-5826
terosced	-5827
thescale	-5828
thesetwo	-5829
todothis	-5830
together	-5831
uringthe	-5832
verypoor	-5833
wereused	-5834
whenitis	-5835
xisavery	-5836
▁Fishers	-5837
▁October	-5838
▁Writing	-5839
▁arcsine	-5840
▁bounded	-5841
▁depends	-5842
▁gardens	-5843
▁happens	-5844
▁leaving	-5845
▁longest	-5846
▁meanofx	-5847
▁missing	-5848
▁showing	-5849
▁simplif	-5850
▁success	-5851
▁weights	-5852
%%2==0]<-	-5853
Detergent	-5854
ExactTest	-5855
NestedDes	-5856
Westartby	-5857
Wewantthe	-5858
alikethis	-5859
allocated	-5860
arriedout	-5861
astraight	-5862
contextof	-5863
corrected	-5864
countdata	-5865
errorbars	-5866
fourmeans	-5867
happening	-5868
hasmodulo	-5869
inadvance	-5870
influence	-5871
ingardenB	-5872
ingofthis	-5873
isclearly	-5874
meansmove	-5875
otherwise	-5876
relyingon	-5877
retaining	-5878
thequickb	-5879
thismodel	-5880
thispoint	-5881
threshold	-5882
toknowthe	-5883
tomeasure	-5884
topresent	-5885
triangles	-5886
typically	-5887
whentheif	-5888
workatthe	-5889
xperiment	-5890
▁Learning	-5891
▁Nowwecan	-5892
▁Plotsfor	-5893
▁Thethird	-5894
▁Thetotal	-5895
▁WelchTwo	-5896
▁achieved	-5897
▁attempts	-5898
▁clipping	-5899
▁comparis	-5900
▁computed	-5901
▁deletion	-5902
▁designed	-5903
▁difftime	-5904
▁entirely	-5905
▁extracts	-5906
▁included	-5907
▁involves	-5908
▁learning	-5909
▁problems	-5910
▁relevant	-5911
▁sampling	-5912
▁scientif	-5913
▁skewness	-5914
▁starting	-5915
▁vultures	-5916
▁whatever	-5917
▁yourself	-5918
(0,10,0.1)	-5919
09:30:59")	-5920
<-4.547386	-5921
Itiscalled	-5922
againstthe	-5923
altendency	-5924
asthereare	-5925
bodyweight	-5926
bythemodel	-5927
equivalent	-5928
experience	-5929
forgardenB	-5930
hardreturn	-5931
intheprevi	-5932
moredetail	-5933
numbersare	-5934
phosphorus	-5935
samplesize	-5936
thatthisis	-5937
thatwehave	-5938
thenthefit	-5939
thesuccess	-5940
uleofthumb	-5941
yorzforthe	-5942
▁(2.02,4.5	-5943
▁Controlvs	-5944
▁Intensevs	-5945
▁Liverbits	-5946
▁Nowwehave	-5947
▁Similarly	-5948
▁Treatment	-5949
▁Webeginby	-5950
▁canonical	-5951
▁curvature	-5952
▁densities	-5953
▁empirical	-5954
▁factorial	-5955
▁helpfully	-5956
▁ingenuity	-5957
▁locations	-5958
▁procedure	-5959
▁questions	-5960
▁subscript	-5961
▁subtotals	-5962
▁supergain	-5963
▁therefore	-5964
(7.06,9.58]	-5965
Notethatthe	-5966
Thequestion	-5967
allthetools	-5968
areasonably	-5969
aregression	-5970
asextremeas	-5971
becausethee	-5972
becoveredin	-5973
deadoralive	-5974
denominator	-5975
deviationof	-5976
esaythatthe	-5977
expectation	-5978
iodiversity	-5979
isdividedby	-5980
ithposition	-5981
meansofdata	-5982
ourobserved	-5983
overallmean	-5984
placestothe	-5985
replication	-5986
subtraction	-5987
theexpected	-5988
thetwomeans	-5989
thevalueofy	-5990
tothenormal	-5991
variableare	-5992
willbelarge	-5993
▁Orobanchea	-5994
▁Theclassic	-5995
▁difficulty	-5996
▁especially	-5997
▁prediction	-5998
▁ratherthan	-5999
▁statistics	-6000
▁triangular	-6001
AABBCCAABBCC	-6002
allthevalues	-6003
andbrowneyes	-6004
becauseweare	-6005
binomialtest	-6006
combinations	-6007
dayoftheweek	-6008
definitionof	-6009
forthesedata	-6010
fourthcolumn	-6011
hierarchical	-6012
ircumstances	-6013
kindofoutput	-6014
linearizedby	-6015
meanozonecon	-6016
quantileplot	-6017
scatterplots	-6018
sofsquaresin	-6019
squaresofthe	-6020
startwiththe	-6021
theremainder	-6022
totalsofdata	-6023
usingsummary	-6024
variablename	-6025
wehaveaneven	-6026
▁(3.19,6.23]	-6027
▁(6.23,9.28]	-6028
▁Nowweneedto	-6029
▁Therearetwo	-6030
▁Warningmess	-6031
▁demonstrate	-6032
▁influential	-6033
▁intensities	-6034
▁interesting	-6035
▁populations	-6036
▁variability	-6037
4](4.54,7.06]	-6038
Itisimportant	-6039
Poissonerrors	-6040
asafunctionof	-6041
differentfrom	-6042
dimensionless	-6043
goodnessoffit	-6044
hootpruningvs	-6045
ifourestimate	-6046
mostimportant	-6047
thatminimizes	-6048
thingweneedto	-6049
twoparameters	-6050
weneedtowrite	-6051
▁(0.144,3.19]	-6052
▁Correctedsum	-6053
▁Notetheuseof	-6054
▁Preparations	-6055
▁[1]0.0011145	-6056
▁bootstrapped	-6057
▁establishing	-6058
[1:22%%2==0]<-	-6059
andcategorical	-6060
areseparatedby	-6061
certaintylevel	-6062
distributionis	-6063
equationforthe	-6064
errorvariances	-6065
forthecontrols	-6066
multiplication	-6067
ofthecharacter	-6068
oftheslopeisto	-6069
treatmentmeans	-6070
withdifferents	-6071
withsamplesize	-6072
▁Itisimportant	-6073
▁Randomization	-6074
▁probabilities	-6075
▁statisticians	-6076
coefficientsare	-6077
extractcucumber	-6078
interceptofthis	-6079
interestedinthe	-6080
oftheexperiment	-6081
ourdistribution	-6082
regressionslope	-6083
statementistrue	-6084
theanswerwewant	-6085
▁Shootpruningvs	-6086
▁meanofxmeanofy	-6087
calculatemedians	-6088
distributionthat	-6089
fractionalpowers	-6090
teroscedasticity	-6091
thesimplestmodel	-6092
valuesofindustry	-6093
▁Hereisanexample	-6094
▁WelchTwoSamplet	-6095
▁linearpredictor	-6096
(!	-6097
(^	-6098
+4	-6099
+6	-6100
,(	-6101
,9	-6102
/(	-6103
0"	-6104
1(	-6105
4"	-6106
4-	-6107
5-	-6108
61	-6109
:2	-6110
<5	-6111
AR	-6112
En	-6113
Pr	-6114
RR	-6115
av	-6116
ck	-6117
cv	-6118
ii	-6119
kn	-6120
ln	-6121
mg	-6122
sd	-6123
xt	-6124
▁+	-6125
▁:	-6126
(3.	-6127
(6,	-6128
.09	-6129
.25	-6130
.4.	-6131
.65	-6132
.85	-6133
10=	-6134
112	-6135
124	-6136
137	-6137
160	-6138
162	-6139
17,	-6140
179	-6141
190	-6142
199	-6143
2)/	-6144
2,8	-6145
230	-6146
23]	-6147
257	-6148
259	-6149
282	-6150
3),	-6151
306	-6152
377	-6153
38.	-6154
389	-6155
401	-6156
452	-6157
457	-6158
472	-6159
473	-6160
655	-6161
677	-6162
678	-6163
681	-6164
71.	-6165
80)	-6166
818	-6167
874	-6168
88,	-6169
885	-6170
889	-6171
9):	-6172
922	-6173
980	-6174
:16	-6175
:33	-6176
:88	-6177
<-"	-6178
=0?	-6179
=1/	-6180
=2,	-6181
=3)	-6182
ARY	-6183
Pit	-6184
Pol	-6185
Tot	-6186
acy	-6187
ani	-6188
asf	-6189
ban	-6190
blu	-6191
cel	-6192
che	-6193
dru	-6194
eas	-6195
eep	-6196
fro	-6197
hib	-6198
isp	-6199
lar	-6200
lex	-6201
lme	-6202
lyd	-6203
mak	-6204
med	-6205
ner	-6206
onp	-6207
pha	-6208
rea	-6209
rec	-6210
ron	-6211
rot	-6212
teg	-6213
tos	-6214
yxy	-6215
▁(4	-6216
▁-5	-6217
▁1,	-6218
▁44	-6219
▁61	-6220
▁69	-6221
▁83	-6222
▁98	-6223
▁==	-6224
▁ay	-6225
▁ca	-6226
▁cu	-6227
▁ns	-6228
▁op	-6229
▁pa	-6230
▁tw	-6231
▁xs	-6232
(1.5	-6233
.706	-6234
0.40	-6235
100%	-6236
104.	-6237
1115	-6238
1234	-6239
1667	-6240
2581	-6241
3345	-6242
4553	-6243
4891	-6244
5.35	-6245
6275	-6246
6498	-6247
7412	-6248
88:8	-6249
Damp	-6250
Hill	-6251
Link	-6252
TheR	-6253
Thea	-6254
Thet	-6255
Wedo	-6256
Well	-6257
absc	-6258
amax	-6259
anas	-6260
ancy	-6261
angu	-6262
asac	-6263
beca	-6264
bone	-6265
clip	-6266
crim	-6267
dark	-6268
dowe	-6269
drug	-6270
easy	-6271
enal	-6272
fash	-6273
faul	-6274
fita	-6275
fits	-6276
ford	-6277
give	-6278
grow	-6279
heap	-6280
heav	-6281
hown	-6282
igon	-6283
issa	-6284
ivid	-6285
ivoc	-6286
loso	-6287
mani	-6288
mgcv	-6289
mort	-6290
ofar	-6291
ofit	-6292
ofle	-6293
orso	-6294
pass	-6295
pite	-6296
rame	-6297
reci	-6298
rite	-6299
samp	-6300
seed	-6301
seem	-6302
ssmo	-6303
star	-6304
sthe	-6305
tock	-6306
tost	-6307
ules	-6308
usin	-6309
view	-6310
wase	-6311
wass	-6312
wont	-6313
woul	-6314
▁-4.	-6315
▁-6.	-6316
▁1.3	-6317
▁1.7	-6318
▁10.	-6319
▁111	-6320
▁112	-6321
▁122	-6322
▁128	-6323
▁148	-6324
▁178	-6325
▁184	-6326
▁229	-6327
▁304	-6328
▁310	-6329
▁312	-6330
▁313	-6331
▁4.4	-6332
▁42.	-6333
▁650	-6334
▁768	-6335
▁990	-6336
▁BIN	-6337
▁LSD	-6338
▁Non	-6339
▁Not	-6340
▁Ref	-6341
▁abx	-6342
▁ali	-6343
▁cre	-6344
▁ens	-6345
▁gen	-6346
▁pan	-6347
▁rec	-6348
▁vmv	-6349
▁wor	-6350
(1:6,	-6351
(6,4,	-6352
,9:12	-6353
08149	-6354
0:05.	-6355
1.706	-6356
111**	-6357
4961.	-6358
90589	-6359
=(1.5	-6360
AandB	-6361
Ftest	-6362
Inthe	-6363
THERR	-6364
Thede	-6365
Toput	-6366
Tosee	-6367
abbre	-6368
ained	-6369
analy	-6370
andIn	-6371
andup	-6372
angle	-6373
arent	-6374
arrow	-6375
asses	-6376
aster	-6377
board	-6378
built	-6379
caret	-6380
cethe	-6381
cribe	-6382
datab	-6383
dient	-6384
dpois	-6385
duced	-6386
ecall	-6387
edown	-6388
endto	-6389
ental	-6390
entry	-6391
falls	-6392
fewer	-6393
fixed	-6394
going	-6395
guess	-6396
ifwec	-6397
igher	-6398
imals	-6399
ioned	-6400
isSSX	-6401
issue	-6402
itout	-6403
lynom	-6404
mooth	-6405
names	-6406
ofpar	-6407
osite	-6408
othed	-6409
parts	-6410
phidc	-6411
redto	-6412
soour	-6413
their	-6414
thetr	-6415
tilde	-6416
tosay	-6417
toyou	-6418
until	-6419
usean	-6420
whent	-6421
witch	-6422
withf	-6423
worse	-6424
▁-6.7	-6425
▁0.07	-6426
▁0.14	-6427
▁0.19	-6428
▁0.34	-6429
▁0.38	-6430
▁0.68	-6431
▁0.95	-6432
▁1.30	-6433
▁1.96	-6434
▁2.5%	-6435
▁28.7	-6436
▁Area	-6437
▁Book	-6438
▁Damp	-6439
▁Even	-6440
▁Farm	-6441
▁Time	-6442
▁[1]6	-6443
▁baby	-6444
▁clar	-6445
▁comm	-6446
▁dead	-6447
▁home	-6448
▁hund	-6449
▁life	-6450
▁medi	-6451
▁miss	-6452
▁orig	-6453
▁pick	-6454
▁poll	-6455
▁tend	-6456
▁tobe	-6457
▁upon	-6458
(1,1))	-6459
2.9411	-6460
Butfor	-6461
Hereis	-6462
TableA	-6463
[1:23]	-6464
andSSE	-6465
around	-6466
asetof	-6467
asingl	-6468
asthey	-6469
asthis	-6470
aswell	-6471
atural	-6472
beable	-6473
become	-6474
bottom	-6475
breaks	-6476
brough	-6477
byprov	-6478
byside	-6479
cannot	-6480
coplot	-6481
create	-6482
crimin	-6483
critic	-6484
cussed	-6485
databy	-6486
dowith	-6487
dustry	-6488
ifthen	-6489
ircles	-6490
ishope	-6491
isthis	-6492
justif	-6493
lation	-6494
letion	-6495
losoph	-6496
making	-6497
onlyif	-6498
option	-6499
orting	-6500
others	-6501
played	-6502
preced	-6503
qqnorm	-6504
remove	-6505
sareex	-6506
scores	-6507
seeBox	-6508
severe	-6509
showup	-6510
smooth	-6511
sonour	-6512
stancy	-6513
stract	-6514
struct	-6515
tegral	-6516
testin	-6517
thatis	-6518
thebar	-6519
themat	-6520
tithas	-6521
tomake	-6522
tonote	-6523
toplot	-6524
trials	-6525
uitive	-6526
ultane	-6527
urpris	-6528
uspect	-6529
viated	-6530
whenit	-6531
youcan	-6532
ypoint	-6533
▁(0:05	-6534
▁-0.50	-6535
▁0.025	-6536
▁14553	-6537
▁14696	-6538
▁2.619	-6539
▁3.612	-6540
▁70035	-6541
▁Cheap	-6542
▁Field	-6543
▁Other	-6544
▁Pound	-6545
▁Since	-6546
▁Sofar	-6547
▁Wecan	-6548
▁[1]78	-6549
▁along	-6550
▁alpha	-6551
▁brown	-6552
▁caret	-6553
▁coded	-6554
▁creat	-6555
▁depth	-6556
▁deriv	-6557
▁direc	-6558
▁doing	-6559
▁early	-6560
▁frame	-6561
▁imply	-6562
▁kinds	-6563
▁label	-6564
▁males	-6565
▁minim	-6566
▁occup	-6567
▁overe	-6568
▁pairs	-6569
▁piece	-6570
▁ranks	-6571
▁refit	-6572
▁river	-6573
▁roots	-6574
▁sound	-6575
▁state	-6576
▁still	-6577
▁trial	-6578
▁unequ	-6579
▁whose	-6580
▁worse	-6581
(10000)	-6582
))[1:3]	-6583
4891107	-6584
7412190	-6585
Because	-6586
Inorder	-6587
Startby	-6588
Thebest	-6589
Theyare	-6590
afactor	-6591
allines	-6592
andnote	-6593
andsoon	-6594
andthat	-6595
andthey	-6596
anguage	-6597
answers	-6598
atdeath	-6599
cluding	-6600
columns	-6601
confirm	-6602
dataset	-6603
designs	-6604
dexpect	-6605
drawing	-6606
element	-6607
experim	-6608
givesus	-6609
ignment	-6610
inffiff	-6611
ingdown	-6612
intothe	-6613
isavery	-6614
istence	-6615
istofit	-6616
itisthe	-6617
knowing	-6618
leading	-6619
likethe	-6620
manipul	-6621
notknow	-6622
ofactor	-6623
ofterms	-6624
ofwhich	-6625
ofxandy	-6626
ofyoure	-6627
onsider	-6628
orderof	-6629
oubleof	-6630
ourdata	-6631
pattern	-6632
reading	-6633
reciate	-6634
related	-6635
rowsare	-6636
showsus	-6637
simpler	-6638
someone	-6639
sowecan	-6640
ssmoker	-6641
theabsc	-6642
thelack	-6643
togetan	-6644
tointer	-6645
tolearn	-6646
tostate	-6647
toutput	-6648
trinsic	-6649
urvival	-6650
vectors	-6651
version	-6652
wedonot	-6653
wehavec	-6654
weights	-6655
werethe	-6656
whatthe	-6657
whereas	-6658
withina	-6659
yandthe	-6660
▁BINARY	-6661
▁Fratio	-6662
▁Garden	-6663
▁Gravel	-6664
▁Median	-6665
▁Nowwec	-6666
▁OTHERR	-6667
▁Source	-6668
▁VARIAB	-6669
▁[1]4.5	-6670
▁aggreg	-6671
▁associ	-6672
▁bottom	-6673
▁colons	-6674
▁conver	-6675
▁finish	-6676
▁follow	-6677
▁gender	-6678
▁longer	-6679
▁moment	-6680
▁occurs	-6681
▁panels	-6682
▁period	-6683
▁places	-6684
▁possib	-6685
▁tables	-6686
▁worked	-6687
(6,4,2,8	-6688
14.22222	-6689
1:10000)	-6690
2=1.3333	-6691
88:81667	-6692
=(1.5:12	-6693
Binomial	-6694
Likewise	-6695
Ofcourse	-6696
Starting	-6697
Themodel	-6698
Themoral	-6699
VARIABLE	-6700
Weobtain	-6701
ameofthe	-6702
analysed	-6703
appropri	-6704
areshown	-6705
asimpler	-6706
atesthat	-6707
athwater	-6708
attheend	-6709
basedons	-6710
casethat	-6711
clusions	-6712
conclude	-6713
counting	-6714
ctuating	-6715
darkgray	-6716
decision	-6717
demonstr	-6718
describe	-6719
employed	-6720
extentto	-6721
favourof	-6722
ferredto	-6723
formulat	-6724
givesthe	-6725
gradient	-6726
howoften	-6727
hypothes	-6728
ifyouhad	-6729
imeswere	-6730
ingonthe	-6731
inlogits	-6732
involves	-6733
inwinter	-6734
isobtain	-6735
issimply	-6736
istofind	-6737
ividedby	-6738
ivocally	-6739
lynomial	-6740
mistakes	-6741
oftheway	-6742
orlarger	-6743
ousthing	-6744
possible	-6745
produces	-6746
redlines	-6747
rendered	-6748
requires	-6749
sequence	-6750
tempting	-6751
thatwere	-6752
thegreat	-6753
thereiss	-6754
thesames	-6755
thesumof	-6756
theywere	-6757
titabout	-6758
todetect	-6759
training	-6760
valueofx	-6761
vectorof	-6762
wherethe	-6763
whereyou	-6764
whichone	-6765
whichthe	-6766
whilethe	-6767
xplained	-6768
youdonot	-6769
▁Thenext	-6770
▁applies	-6771
▁clarity	-6772
▁compris	-6773
▁context	-6774
▁convert	-6775
▁drawing	-6776
▁ensures	-6777
▁fitting	-6778
▁gardenA	-6779
▁gardenC	-6780
▁highest	-6781
▁hundred	-6782
▁inspect	-6783
▁inverse	-6784
▁medians	-6785
▁medical	-6786
▁methods	-6787
▁outside	-6788
▁overlap	-6789
▁repeats	-6790
▁solvent	-6791
▁thebars	-6792
▁thereis	-6793
▁thought	-6794
▁workfor	-6795
0.0008149	-6796
Itisworth	-6797
Letustake	-6798
Pollution	-6799
Structure	-6800
Thesecond	-6801
Treatment	-6802
Variables	-6803
Youcansee	-6804
Youneedto	-6805
alongwith	-6806
anddivide	-6807
andsecond	-6808
aparticul	-6809
aresponse	-6810
arginally	-6811
asfollows	-6812
atistical	-6813
avaluefor	-6814
backtothe	-6815
becauseif	-6816
bothcases	-6817
certainly	-6818
clearthat	-6819
dataframe	-6820
datapoint	-6821
echangein	-6822
effectsof	-6823
evaluated	-6824
fashioned	-6825
ffiffiffi	-6826
foragiven	-6827
giventhat	-6828
ictionary	-6829
ifyoulike	-6830
inclusion	-6831
inthesame	-6832
isequalto	-6833
itdoesnot	-6834
itisagood	-6835
levelredu	-6836
lightgray	-6837
meanvalue	-6838
mortality	-6839
normallyd	-6840
notethatR	-6841
ofsuccess	-6842
ofxvalues	-6843
orbecause	-6844
ordinates	-6845
processor	-6846
reducethe	-6847
ressedasa	-6848
thatwecan	-6849
theleasts	-6850
thereares	-6851
thingisto	-6852
tocompute	-6853
toproduce	-6854
wanttosee	-6855
wecompare	-6856
wefindthe	-6857
whenweare	-6858
withthese	-6859
▁0.186865	-6860
▁Kurtosis	-6861
▁RESPONSE	-6862
▁Response	-6863
▁aliasing	-6864
▁antilogs	-6865
▁computer	-6866
▁concepts	-6867
▁declines	-6868
▁examples	-6869
▁executed	-6870
▁exercise	-6871
▁happened	-6872
▁identity	-6873
▁industry	-6874
▁integral	-6875
▁lessthan	-6876
▁memorize	-6877
▁occupied	-6878
▁quantify	-6879
▁sentence	-6880
▁sessions	-6881
▁smoothed	-6882
▁somewhat	-6883
▁training	-6884
▁turnsout	-6885
▁unknowns	-6886
▁valueofx	-6887
▁visually	-6888
0:00195312	-6889
Inspection	-6890
Subscripts	-6891
TypeIerror	-6892
andtheirst	-6893
arisesasto	-6894
asymptotic	-6895
athreshold	-6896
buttheidea	-6897
butthereis	-6898
bydividing	-6899
components	-6900
continuity	-6901
fortesting	-6902
fourlevels	-6903
impossible	-6904
indifferen	-6905
infavourof	-6906
ishopeless	-6907
islessthan	-6908
ivenumbers	-6909
oftherange	-6910
oneforeach	-6911
precedence	-6912
properties	-6913
reasonably	-6914
sidebyside	-6915
specifying	-6916
thanwewoul	-6917
thatapoint	-6918
thatdepend	-6919
thedataare	-6920
themaximum	-6921
thenallthe	-6922
theyvalues	-6923
thinkabout	-6924
toindicate	-6925
wayofdoing	-6926
weshalluse	-6927
whatkindof	-6928
withtheodd	-6929
yOrobanche	-6930
▁0.00111**	-6931
▁0.4891107	-6932
▁0.6590589	-6933
▁0.8274156	-6934
▁1.7412190	-6935
▁2.6192581	-6936
▁3.6126275	-6937
▁Cheapside	-6938
▁Thereisno	-6939
▁VARIABLES	-6940
▁attribute	-6941
▁confident	-6942
▁depending	-6943
▁directive	-6944
▁displayed	-6945
▁downandup	-6946
▁effective	-6947
▁involving	-6948
▁minimizes	-6949
▁numberofs	-6950
▁numerator	-6951
▁ofsquares	-6952
▁piecewise	-6953
▁pollution	-6954
▁rereading	-6955
▁rootstock	-6956
▁selection	-6957
▁thenumber	-6958
Asyoucansee	-6959
Information	-6960
Proportions	-6961
Thatistosay	-6962
Thenumberof	-6963
Therearesix	-6964
abbreviated	-6965
andthecorre	-6966
areasonable	-6967
bythesquare	-6968
cellssmoker	-6969
crimination	-6970
demonstrate	-6971
differentat	-6972
distinction	-6973
experiments	-6974
faultoutput	-6975
functionfor	-6976
gettingthis	-6977
graphically	-6978
hereistouse	-6979
hypothesiss	-6980
igonometric	-6981
infectedage	-6982
influential	-6983
informative	-6984
interesting	-6985
nottheother	-6986
ofparsimony	-6987
onentiation	-6988
overlapping	-6989
positivedis	-6990
squaredtest	-6991
theabscissa	-6992
theordinate	-6993
tointerpret	-6994
tratherthan	-6995
ultaneously	-6996
urprisingly	-6997
whichbrough	-6998
▁appreciate	-6999
▁attributes	-7000
▁becausethe	-7001
▁fertilizer	-7002
▁irrigation	-7003
▁logarithms	-7004
▁percentage	-7005
▁preferable	-7006
▁themselves	-7007
▁throughout	-7008
acontingency	-7009
acorrelation	-7010
andarderrors	-7011
calculatethe	-7012
comparingtwo	-7013
covarianceis	-7014
dividedbythe	-7015
foreachofthe	-7016
individualis	-7017
individualor	-7018
isveryuseful	-7019
lengthsofthe	-7020
modelthrough	-7021
offitbetween	-7022
parametersis	-7023
pecification	-7024
returntothis	-7025
temperatures	-7026
theestimates	-7027
utomatically	-7028
wecanworkout	-7029
whenitistrue	-7030
▁146962.9411	-7031
▁Asyoucansee	-7032
▁Correlation	-7033
▁PearsonsChi	-7034
▁[1]14.22222	-7035
▁approximate	-7036
▁germination	-7037
▁guesstimate	-7038
▁investigate	-7039
▁possibility	-7040
▁proportions	-7041
▁remembering	-7042
Letustryitout	-7043
Thisisbecause	-7044
Youcanseethis	-7045
amaximalmodel	-7046
analysisusing	-7047
becausewehave	-7048
containsanodd	-7049
criticalvalue	-7050
estimatingthe	-7051
extenttowhich	-7052
fractionofthe	-7053
ifthetwomeans	-7054
isindependent	-7055
istodetermine	-7056
nomiddlevalue	-7057
nosignificant	-7058
progressively	-7059
quadraticterm	-7060
randomization	-7061
randomsamples	-7062
roundbrackets	-7063
thattherearen	-7064
theANOVAtable	-7065
thecovariance	-7066
thesquareroot	-7067
thisstandsfor	-7068
treatmentmean	-7069
understandthe	-7070
variationfrom	-7071
verticallines	-7072
whichofthetwo	-7073
wordprocessor	-7074
▁Thefollowing	-7075
▁[1]0.8820102	-7076
▁longitudinal	-7077
▁respectively	-7078
(0.025,0.975))	-7079
arithmeticmean	-7080
associatedwith	-7081
becausethereis	-7082
binaryresponse	-7083
calculatingthe	-7084
conventionally	-7085
dependingonthe	-7086
frequenciesare	-7087
givesthelowest	-7088
greaterthanthe	-7089
levelreduction	-7090
nottheotherway	-7091
ofthehistogram	-7092
oftheintercept	-7093
onthebehaviour	-7094
overdispersion	-7095
thatthereareno	-7096
thedenominator	-7097
thesamplesizes	-7098
togetbacktothe	-7099
togettheanswer	-7100
wecancalculate	-7101
▁Alternatively	-7102
▁OTHERRESPONSE	-7103
▁Thismeansthat	-7104
▁complementary	-7105
▁contingencies	-7106
▁overestimates	-7107
▁probabilityof	-7108
▁randomization	-7109
▁unequivocally	-7110
degreeoffreedom	-7111
dexpectbychance	-7112
firstwiththeodd	-7113
istofindthebest	-7114
normalerrorsand	-7115
phidcaterpillar	-7116
straightforward	-7117
themeannumberof	-7118
unfamiliartoyou	-7119
▁Correlationand	-7120
cessignificantly	-7121
contingencytable	-7122
demonstratesthat	-7123
oftheexplanatory	-7124
transformedscale	-7125
▁qffiffiffiffiff	-7126
▁transformations	-7127
"%	-7128
+1	-7129
+2	-7130
-1	-7131
0(	-7132
2?	-7133
58	-7134
:%	-7135
AI	-7136
AT	-7137
Ar	-7138
Bu	-7139
LM	-7140
LU	-7141
No	-7142
Or	-7143
Qu	-7144
Rs	-7145
]*	-7146
az	-7147
cx	-7148
gg	-7149
hm	-7150
mu	-7151
rs	-7152
▁!	-7153
▁/	-7154
▁Z	-7155
(2*	-7156
(28	-7157
)):	-7158
)*(	-7159
-1,	-7160
.14	-7161
.44	-7162
.59	-7163
0""	-7164
0,4	-7165
1""	-7166
10+	-7167
11:	-7168
139	-7169
15,	-7170
17"	-7171
174	-7172
1=9	-7173
2).	-7174
2.6	-7175
2.8	-7176
22:	-7177
24,	-7178
24/	-7179
264	-7180
28:	-7181
2=4	-7182
2]]	-7183
3,]	-7184
374	-7185
3]]	-7186
4,]	-7187
45)	-7188
50:	-7189
5<-	-7190
6,2	-7191
679	-7192
727	-7193
758	-7194
875	-7195
953	-7196
984	-7197
:28	-7198
:34	-7199
=0)	-7200
=5.	-7201
ATH	-7202
All	-7203
And	-7204
Not	-7205
ROb	-7206
Ris	-7207
Use	-7208
agn	-7209
azy	-7210
bad	-7211
byG	-7212
cmt	-7213
dds	-7214
def	-7215
dog	-7216
ffi	-7217
gob	-7218
inp	-7219
ito	-7220
ius	-7221
men	-7222
met	-7223
nia	-7224
nof	-7225
oop	-7226
ori	-7227
pas	-7228
phm	-7229
pot	-7230
ram	-7231
rim	-7232
ros	-7233
sIn	-7234
six	-7235
tep	-7236
tly	-7237
tod	-7238
uge	-7239
ush	-7240
▁(9	-7241
▁-4	-7242
▁-9	-7243
▁1/	-7244
▁45	-7245
▁5%	-7246
▁53	-7247
▁59	-7248
▁By	-7249
▁DE	-7250
▁OK	-7251
▁Pc	-7252
▁Pi	-7253
▁ci	-7254
▁en	-7255
▁kn	-7256
(-12	-7257
(0))	-7258
(1.8	-7259
(10)	-7260
(16,	-7261
(19,	-7262
(28.	-7263
))^3	-7264
)/0.	-7265
+1+2	-7266
-6.8	-7267
.2).	-7268
.56,	-7269
.817	-7270
.943	-7271
0175	-7272
0195	-7273
0495	-7274
1","	-7275
1015	-7276
12).	-7277
13]"	-7278
1484	-7279
1652	-7280
19.5	-7281
1:25	-7282
2,1)	-7283
2.5%	-7284
225,	-7285
2:56	-7286
3.94	-7287
30).	-7288
3124	-7289
3446	-7290
4,3,	-7291
455.	-7292
75)*	-7293
7812	-7294
81).	-7295
8898	-7296
9964	-7297
=1.7	-7298
=15,	-7299
=2.5	-7300
AILU	-7301
Also	-7302
Both	-7303
Comp	-7304
Forx	-7305
Ifit	-7306
Inrm	-7307
SSDf	-7308
Ther	-7309
^2))	-7310
aGLM	-7311
abit	-7312
aded	-7313
ader	-7314
ails	-7315
andT	-7316
anew	-7317
asaC	-7318
asib	-7319
atch	-7320
base	-7321
chap	-7322
cmin	-7323
crib	-7324
delt	-7325
diox	-7326
edge	-7327
face	-7328
flow	-7329
free	-7330
ifwe	-7331
illi	-7332
inge	-7333
inon	-7334
isac	-7335
isun	-7336
jump	-7337
lead	-7338
limb	-7339
lish	-7340
lood	-7341
lyco	-7342
ners	-7343
nest	-7344
next	-7345
ofSq	-7346
oles	-7347
omes	-7348
ones	-7349
open	-7350
osit	-7351
pell	-7352
phur	-7353
pond	-7354
pose	-7355
pphm	-7356
prop	-7357
quar	-7358
quit	-7359
rain	-7360
reak	-7361
rove	-7362
rule	-7363
sequ	-7364
sign	-7365
size	-7366
soit	-7367
sume	-7368
thet	-7369
tire	-7370
toom	-7371
ukey	-7372
unti	-7373
ybar	-7374
ylog	-7375
ynam	-7376
▁124	-7377
▁143	-7378
▁149	-7379
▁176	-7380
▁179	-7381
▁190	-7382
▁2.1	-7383
▁20,	-7384
▁211	-7385
▁214	-7386
▁218	-7387
▁224	-7388
▁230	-7389
▁247	-7390
▁272	-7391
▁275	-7392
▁276	-7393
▁296	-7394
▁298	-7395
▁299	-7396
▁3.2	-7397
▁301	-7398
▁320	-7399
▁4.9	-7400
▁496	-7401
▁5.7	-7402
▁6.5	-7403
▁6.8	-7404
▁61.	-7405
▁683	-7406
▁7.5	-7407
▁Add	-7408
▁Ess	-7409
▁GLM	-7410
▁Max	-7411
▁Min	-7412
▁[10	-7413
▁aff	-7414
▁air	-7415
▁amb	-7416
▁asy	-7417
▁bir	-7418
▁bit	-7419
▁dfb	-7420
▁dig	-7421
▁dot	-7422
▁far	-7423
▁fir	-7424
▁giv	-7425
▁inv	-7426
▁isa	-7427
▁man	-7428
▁met	-7429
▁mon	-7430
▁nor	-7431
▁pos	-7432
▁rad	-7433
▁ser	-7434
▁who	-7435
(2,3,	-7436
(4,3,	-7437
)[19]	-7438
)[20]	-7439
.148)	-7440
.5867	-7441
0.000	-7442
1.217	-7443
11:75	-7444
13416	-7445
13664	-7446
20.07	-7447
22222	-7448
2=2.8	-7449
33333	-7450
59008	-7451
66667	-7452
7.829	-7453
80.85	-7454
:0.76	-7455
>12))	-7456
NotaN	-7457
Slope	-7458
Thats	-7459
Thist	-7460
Wrong	-7461
aandb	-7462
adata	-7463
added	-7464
aidto	-7465
alist	-7466
alsow	-7467
anies	-7468
aresh	-7469
arise	-7470
armon	-7471
atall	-7472
ators	-7473
basis	-7474
blank	-7475
butit	-7476
caled	-7477
cando	-7478
chard	-7479
early	-7480
effec	-7481
eline	-7482
endix	-7483
erion	-7484
exact	-7485
extra	-7486
glish	-7487
hasis	-7488
horts	-7489
icros	-7490
iffiP	-7491
ifits	-7492
ignof	-7493
imize	-7494
inall	-7495
ingof	-7496
ingul	-7497
intoR	-7498
intoa	-7499
intro	-7500
iosyn	-7501
irrit	-7502
isnow	-7503
itude	-7504
lover	-7505
malec	-7506
ornot	-7507
pical	-7508
ptime	-7509
ranki	-7510
razed	-7511
riori	-7512
roups	-7513
seeif	-7514
slash	-7515
sofar	-7516
tents	-7517
thasa	-7518
thebr	-7519
thper	-7520
tiler	-7521
tocol	-7522
tryre	-7523
uchas	-7524
undam	-7525
velop	-7526
yandx	-7527
years	-7528
▁13.2	-7529
▁33.2	-7530
▁ANDF	-7531
▁Cave	-7532
▁Cels	-7533
▁Link	-7534
▁Loop	-7535
▁Odds	-7536
▁Trim	-7537
▁Work	-7538
▁[1]3	-7539
▁[3,]	-7540
▁[4,]	-7541
▁able	-7542
▁bloc	-7543
▁dram	-7544
▁elim	-7545
▁half	-7546
▁hint	-7547
▁igno	-7548
▁isit	-7549
▁iter	-7550
▁lack	-7551
▁mess	-7552
▁mist	-7553
▁nSSX	-7554
▁play	-7555
▁post	-7556
▁pphm	-7557
▁said	-7558
▁save	-7559
▁sets	-7560
▁varD	-7561
▁vary	-7562
▁wide	-7563
(0:10,	-7564
)/0.38	-7565
-05***	-7566
-08***	-7567
0.0022	-7568
049587	-7569
0:0195	-7570
1.216,	-7571
23.56,	-7572
3,4,5,	-7573
454545	-7574
AILURE	-7575
Gravel	-7576
Meadow	-7577
Theaim	-7578
Todraw	-7579
Values	-7580
affiff	-7581
airedt	-7582
allows	-7583
aphnia	-7584
atches	-7585
azydog	-7586
butnot	-7587
causes	-7588
cminto	-7589
cmtall	-7590
contro	-7591
disper	-7592
dothis	-7593
egenot	-7594
ellsus	-7595
emales	-7596
enceof	-7597
eredby	-7598
erived	-7599
figure	-7600
frames	-7601
fromad	-7602
germin	-7603
ggests	-7604
goback	-7605
humped	-7606
icalAr	-7607
icmean	-7608
inonec	-7609
inradi	-7610
intend	-7611
inyour	-7612
issues	-7613
itogen	-7614
izesof	-7615
judges	-7616
legend	-7617
letter	-7618
lotsof	-7619
madeby	-7620
mature	-7621
mighth	-7622
moment	-7623
nbinom	-7624
oflack	-7625
ofskew	-7626
pooled	-7627
quasib	-7628
reread	-7629
respec	-7630
sandRe	-7631
spearm	-7632
suchas	-7633
symbol	-7634
tative	-7635
thebox	-7636
theday	-7637
theequ	-7638
thenas	-7639
tobere	-7640
tothem	-7641
tothen	-7642
towrit	-7643
uclear	-7644
ulphur	-7645
usjust	-7646
yousee	-7647
▁0.818	-7648
▁13320	-7649
▁28.75	-7650
▁88.82	-7651
▁DEATH	-7652
▁DfSum	-7653
▁Evalu	-7654
▁RSSDf	-7655
▁RasaC	-7656
▁Wecon	-7657
▁[13]"	-7658
▁[[2]]	-7659
▁[[3]]	-7660
▁alike	-7661
▁badly	-7662
▁basis	-7663
▁blank	-7664
▁colon	-7665
▁comes	-7666
▁dynam	-7667
▁extra	-7668
▁helps	-7669
▁multi	-7670
▁onthe	-7671
▁plain	-7672
▁prove	-7673
▁qnorm	-7674
▁resol	-7675
▁resul	-7676
▁seeds	-7677
▁space	-7678
▁steps	-7679
▁story	-7680
▁stric	-7681
▁thats	-7682
▁those	-7683
▁trans	-7684
▁wider	-7685
▁worms	-7686
(1.875)	-7687
(4,196)	-7688
0.66667	-7689
3651484	-7690
50:0175	-7691
9504132	-7692
=0.8898	-7693
Inthese	-7694
LinearP	-7695
RObject	-7696
SumofSq	-7697
Testing	-7698
Thelast	-7699
Wewould	-7700
ansrank	-7701
aresure	-7702
ategory	-7703
atleast	-7704
average	-7705
bmustbe	-7706
chapter	-7707
closeto	-7708
cmustbe	-7709
cognize	-7710
constra	-7711
current	-7712
dioxide	-7713
ecounts	-7714
equally	-7715
erences	-7716
factors	-7717
fertili	-7718
forhigh	-7719
grazing	-7720
highand	-7721
ichness	-7722
ifwecan	-7723
inorder	-7724
interms	-7725
itiveto	-7726
iveskew	-7727
loglink	-7728
lycogen	-7729
perfect	-7730
quently	-7731
readoff	-7732
reduces	-7733
remains	-7734
science	-7735
tegerQu	-7736
thatAre	-7737
thebars	-7738
theleft	-7739
uctured	-7740
unknown	-7741
wehaven	-7742
whenyou	-7743
▁5.5867	-7744
▁88.817	-7745
▁ANCOVA	-7746
▁Binary	-7747
▁Number	-7748
▁Youcan	-7749
▁[1]2.8	-7750
▁assume	-7751
▁asymme	-7752
▁bounds	-7753
▁cancel	-7754
▁cohort	-7755
▁covari	-7756
▁decide	-7757
▁during	-7758
▁effici	-7759
▁employ	-7760
▁giving	-7761
▁graphs	-7762
▁indeed	-7763
▁limits	-7764
▁lowest	-7765
▁margin	-7766
▁nearly	-7767
▁placed	-7768
▁region	-7769
▁serial	-7770
▁series	-7771
▁shaded	-7772
▁slight	-7773
▁sounds	-7774
▁substr	-7775
▁theory	-7776
(.975,5)	-7777
(2,3,0,4	-7778
(4,196),	-7779
(5.7-6.8	-7780
0.006138	-7781
1.755556	-7782
4,3,2,1)	-7783
Fratiois	-7784
Orobanch	-7785
Rsession	-7786
Theseare	-7787
Thethird	-7788
TypeIand	-7789
Ungrazed	-7790
Usingstr	-7791
Weshould	-7792
Wilcoxon	-7793
addition	-7794
agnitude	-7795
amountof	-7796
andTimes	-7797
andother	-7798
andplant	-7799
anyvalue	-7800
approxim	-7801
atemodel	-7802
bankrupt	-7803
boxshows	-7804
butwecan	-7805
byGroups	-7806
carrying	-7807
complish	-7808
concepts	-7809
condcase	-7810
consider	-7811
detailin	-7812
directly	-7813
doesnots	-7814
flowered	-7815
fourthis	-7816
fromyour	-7817
gaussian	-7818
grouping	-7819
handtail	-7820
iciently	-7821
improved	-7822
inRusing	-7823
inamodel	-7824
included	-7825
infinite	-7826
integers	-7827
inwhichy	-7828
learning	-7829
lighting	-7830
liminary	-7831
multiply	-7832
notfound	-7833
oftenthe	-7834
ofthenon	-7835
oneither	-7836
powerful	-7837
promoted	-7838
pvalueis	-7839
redictor	-7840
riterion	-7841
soverlap	-7842
spearman	-7843
strsplit	-7844
swithExp	-7845
thathave	-7846
thatjust	-7847
thatthey	-7848
themeans	-7849
theseare	-7850
todenote	-7851
toensure	-7852
unitsofy	-7853
untilyou	-7854
valueofF	-7855
valueofz	-7856
whenthen	-7857
withties	-7858
youcould	-7859
▁Butwhat	-7860
▁Caveats	-7861
▁Celsius	-7862
▁Derived	-7863
▁Testing	-7864
▁Working	-7865
▁Youwill	-7866
▁aliased	-7867
▁analyse	-7868
▁behaved	-7869
▁careful	-7870
▁carried	-7871
▁classes	-7872
▁colours	-7873
▁earnest	-7874
▁element	-7875
▁feature	-7876
▁females	-7877
▁grazing	-7878
▁history	-7879
▁improve	-7880
▁lengths	-7881
▁mistake	-7882
▁notches	-7883
▁obvious	-7884
▁omitted	-7885
▁outlier	-7886
▁printed	-7887
▁radians	-7888
▁related	-7889
▁similar	-7890
▁themean	-7891
▁tolower	-7892
▁toupper	-7893
▁underes	-7894
▁version	-7895
(-127.829	-7896
Censoring	-7897
Contrasts	-7898
GeneralMe	-7899
Theoutput	-7900
Typically	-7901
andThings	-7902
andidates	-7903
areshared	-7904
▁	-7905
e	-7906
t	-7907
a	-7908
i	-7909
o	-7910
s	-7911
n	-7912
r	-7913
h	-7914
l	-7915
d	-7916
c	-7917
u	-7918
f	-7919
m	-7920
p	-7921
y	-7922
w	-7923
g	-7924
b	-7925
.	-7926
v	-7927
1	-7928
,	-7929
(	-7930
0	-7931
)	-7932
2	-7933
:	-7934
T	-7935
x	-7936
S	-7937
3	-7938
A	-7939
5	-7940
4	-7941
-	-7942
I	-7943
9	-7944
k	-7945
6	-7946
"	-7947
8	-7948
N	-7949
7	-7950
q	-7951
=	-7952
W	-7953
R	-7954
C	-7955
]	-7956
[	-7957
E	-7958
O	-7959
?	-7960
P	-7961
<	-7962
Q	-7963
F	-7964
z	-7965
D	-7966
U	-7967
*	-7968
B	-7969
L	-7970
G	-7971
/	-7972
X	-7973
\	-7974
j	-7975
M	-7976
Y	-7977
^	-7978
+	-7979
H	-7980
%	-7981
V	-7982
;	-7983
>	-7984
|	-7985
{	-7986
}	-7987
K	-7988
J	-7989
!	-7990
$	-7991
&	-7992
Z	-7993
~	-7994
#	-7995
_	-7996
